{
  "version": "1.0",
  "truncation": null,
  "padding": null,
  "added_tokens": [
    {
      "id": 0,
      "content": "<s>",
      "single_word": false,
      "lstrip": false,
      "rstrip": false,
      "normalized": false,
      "special": true
    },
    {
      "id": 1,
      "content": "<pad>",
      "single_word": false,
      "lstrip": false,
      "rstrip": false,
      "normalized": false,
      "special": true
    },
    {
      "id": 2,
      "content": "</s>",
      "single_word": false,
      "lstrip": false,
      "rstrip": false,
      "normalized": false,
      "special": true
    },
    {
      "id": 3,
      "content": "<unk>",
      "single_word": false,
      "lstrip": false,
      "rstrip": false,
      "normalized": false,
      "special": true
    },
    {
      "id": 4,
      "content": "<mask>",
      "single_word": false,
      "lstrip": false,
      "rstrip": false,
      "normalized": false,
      "special": true
    }
  ],
  "normalizer": null,
  "pre_tokenizer": {
    "type": "ByteLevel",
    "add_prefix_space": false,
    "trim_offsets": true,
    "use_regex": true
  },
  "post_processor": {
    "type": "ByteLevel",
    "add_prefix_space": true,
    "trim_offsets": false,
    "use_regex": true
  },
  "decoder": {
    "type": "ByteLevel",
    "add_prefix_space": true,
    "trim_offsets": true,
    "use_regex": true
  },
  "model": {
    "type": "BPE",
    "dropout": null,
    "unk_token": null,
    "continuing_subword_prefix": null,
    "end_of_word_suffix": null,
    "fuse_unk": false,
    "byte_fallback": false,
    "ignore_merges": false,
    "vocab": {
      "<s>": 0,
      "<pad>": 1,
      "</s>": 2,
      "<unk>": 3,
      "<mask>": 4,
      "!": 5,
      "\"": 6,
      "#": 7,
      "$": 8,
      "%": 9,
      "&": 10,
      "'": 11,
      "(": 12,
      ")": 13,
      "*": 14,
      "+": 15,
      ",": 16,
      "-": 17,
      ".": 18,
      "/": 19,
      "0": 20,
      "1": 21,
      "2": 22,
      "3": 23,
      "4": 24,
      "5": 25,
      "6": 26,
      "7": 27,
      "8": 28,
      "9": 29,
      ":": 30,
      ";": 31,
      "<": 32,
      "=": 33,
      ">": 34,
      "?": 35,
      "@": 36,
      "A": 37,
      "B": 38,
      "C": 39,
      "D": 40,
      "E": 41,
      "F": 42,
      "G": 43,
      "H": 44,
      "I": 45,
      "J": 46,
      "K": 47,
      "L": 48,
      "M": 49,
      "N": 50,
      "O": 51,
      "P": 52,
      "Q": 53,
      "R": 54,
      "S": 55,
      "T": 56,
      "U": 57,
      "V": 58,
      "W": 59,
      "X": 60,
      "Y": 61,
      "Z": 62,
      "[": 63,
      "\\": 64,
      "]": 65,
      "^": 66,
      "_": 67,
      "`": 68,
      "a": 69,
      "b": 70,
      "c": 71,
      "d": 72,
      "e": 73,
      "f": 74,
      "g": 75,
      "h": 76,
      "i": 77,
      "j": 78,
      "k": 79,
      "l": 80,
      "m": 81,
      "n": 82,
      "o": 83,
      "p": 84,
      "q": 85,
      "r": 86,
      "s": 87,
      "t": 88,
      "u": 89,
      "v": 90,
      "w": 91,
      "x": 92,
      "y": 93,
      "z": 94,
      "{": 95,
      "|": 96,
      "}": 97,
      "~": 98,
      "¡": 99,
      "¢": 100,
      "£": 101,
      "¤": 102,
      "¥": 103,
      "¦": 104,
      "§": 105,
      "¨": 106,
      "©": 107,
      "ª": 108,
      "«": 109,
      "¬": 110,
      "®": 111,
      "¯": 112,
      "°": 113,
      "±": 114,
      "²": 115,
      "³": 116,
      "´": 117,
      "µ": 118,
      "¶": 119,
      "·": 120,
      "¸": 121,
      "¹": 122,
      "º": 123,
      "»": 124,
      "¼": 125,
      "½": 126,
      "¾": 127,
      "¿": 128,
      "À": 129,
      "Á": 130,
      "Â": 131,
      "Ã": 132,
      "Ä": 133,
      "Å": 134,
      "Æ": 135,
      "Ç": 136,
      "È": 137,
      "É": 138,
      "Ê": 139,
      "Ë": 140,
      "Ì": 141,
      "Í": 142,
      "Î": 143,
      "Ï": 144,
      "Ð": 145,
      "Ñ": 146,
      "Ò": 147,
      "Ó": 148,
      "Ô": 149,
      "Õ": 150,
      "Ö": 151,
      "×": 152,
      "Ø": 153,
      "Ù": 154,
      "Ú": 155,
      "Û": 156,
      "Ü": 157,
      "Ý": 158,
      "Þ": 159,
      "ß": 160,
      "à": 161,
      "á": 162,
      "â": 163,
      "ã": 164,
      "ä": 165,
      "å": 166,
      "æ": 167,
      "ç": 168,
      "è": 169,
      "é": 170,
      "ê": 171,
      "ë": 172,
      "ì": 173,
      "í": 174,
      "î": 175,
      "ï": 176,
      "ð": 177,
      "ñ": 178,
      "ò": 179,
      "ó": 180,
      "ô": 181,
      "õ": 182,
      "ö": 183,
      "÷": 184,
      "ø": 185,
      "ù": 186,
      "ú": 187,
      "û": 188,
      "ü": 189,
      "ý": 190,
      "þ": 191,
      "ÿ": 192,
      "Ā": 193,
      "ā": 194,
      "Ă": 195,
      "ă": 196,
      "Ą": 197,
      "ą": 198,
      "Ć": 199,
      "ć": 200,
      "Ĉ": 201,
      "ĉ": 202,
      "Ċ": 203,
      "ċ": 204,
      "Č": 205,
      "č": 206,
      "Ď": 207,
      "ď": 208,
      "Đ": 209,
      "đ": 210,
      "Ē": 211,
      "ē": 212,
      "Ĕ": 213,
      "ĕ": 214,
      "Ė": 215,
      "ė": 216,
      "Ę": 217,
      "ę": 218,
      "Ě": 219,
      "ě": 220,
      "Ĝ": 221,
      "ĝ": 222,
      "Ğ": 223,
      "ğ": 224,
      "Ġ": 225,
      "ġ": 226,
      "Ģ": 227,
      "ģ": 228,
      "Ĥ": 229,
      "ĥ": 230,
      "Ħ": 231,
      "ħ": 232,
      "Ĩ": 233,
      "ĩ": 234,
      "Ī": 235,
      "ī": 236,
      "Ĭ": 237,
      "ĭ": 238,
      "Į": 239,
      "į": 240,
      "İ": 241,
      "ı": 242,
      "Ĳ": 243,
      "ĳ": 244,
      "Ĵ": 245,
      "ĵ": 246,
      "Ķ": 247,
      "ķ": 248,
      "ĸ": 249,
      "Ĺ": 250,
      "ĺ": 251,
      "Ļ": 252,
      "ļ": 253,
      "Ľ": 254,
      "ľ": 255,
      "Ŀ": 256,
      "ŀ": 257,
      "Ł": 258,
      "ł": 259,
      "Ń": 260,
      "čĊ": 261,
      "in": 262,
      "er": 263,
      "Ġa": 264,
      "Ġt": 265,
      "on": 266,
      "re": 267,
      "Ġo": 268,
      "en": 269,
      "at": 270,
      "Âł": 271,
      "es": 272,
      "Ġth": 273,
      "ed": 274,
      "ÂłčĊ": 275,
      "an": 276,
      "it": 277,
      "al": 278,
      "Ġc": 279,
      "nd": 280,
      "or": 281,
      "Ġthe": 282,
      "ion": 283,
      "Ġin": 284,
      "Ġs": 285,
      "em": 286,
      "ent": 287,
      "ing": 288,
      "20": 289,
      "Ġp": 290,
      "Ġof": 291,
      "Ġand": 292,
      "00": 293,
      "Ġf": 294,
      "ar": 295,
      "ur": 296,
      "om": 297,
      "is": 298,
      "Ġre": 299,
      "ct": 300,
      "us": 301,
      "202": 302,
      "Ġb": 303,
      "ber": 304,
      "Ġto": 305,
      "Ġw": 306,
      "Ġm": 307,
      "as": 308,
      "Ġd": 309,
      "ic": 310,
      "ember": 311,
      "il": 312,
      "âĢ": 313,
      "ro": 314,
      "et": 315,
      "Member": 316,
      "ĠčĊ": 317,
      "ation": 318,
      "le": 319,
      "Ġe": 320,
      "iv": 321,
      "ĠC": 322,
      "lo": 323,
      "ment": 324,
      "ap": 325,
      "th": 326,
      "Ġh": 327,
      "ec": 328,
      "01": 329,
      "el": 330,
      "im": 331,
      "Ġn": 332,
      "ga": 333,
      "Ġas": 334,
      "ou": 335,
      "31": 336,
      "ol": 337,
      "ĠS": 338,
      "anc": 339,
      "ab": 340,
      "ies": 341,
      "id": 342,
      "ut": 343,
      "ĠA": 344,
      "st": 345,
      "nt": 346,
      "est": 347,
      "ated": 348,
      "omp": 349,
      "ot": 350,
      "gaap": 351,
      "Ġour": 352,
      "ig": 353,
      "Ġfor": 354,
      "qu": 355,
      "Ġcon": 356,
      "ul": 357,
      "ĠT": 358,
      "ch": 359,
      "Ġinc": 360,
      "Ġ202": 361,
      "ĠI": 362,
      "ir": 363,
      "ate": 364,
      "Ġpro": 365,
      "ial": 366,
      "12": 367,
      "ity": 368,
      "Ġon": 369,
      "Ġl": 370,
      "ue": 371,
      "Ġor": 372,
      "Ġex": 373,
      "ers": 374,
      "ect": 375,
      "Ġ(": 376,
      "ly": 377,
      "ill": 378,
      "he": 379,
      "Ġg": 380,
      "ure": 381,
      "ther": 382,
      "tr": 383,
      "ement": 384,
      "ay": 385,
      "per": 386,
      "ter": 387,
      "ort": 388,
      "ĠD": 389,
      "ĠF": 390,
      "act": 391,
      "Ġis": 392,
      "ess": 393,
      "ith": 394,
      "0000": 395,
      "Ġu": 396,
      "ud": 397,
      "ef": 398,
      "ions": 399,
      "able": 400,
      "if": 401,
      "red": 402,
      "Ġr": 403,
      "ge": 404,
      "ities": 405,
      "ive": 406,
      "ver": 407,
      "ens": 408,
      "âĢĶ": 409,
      "Ġst": 410,
      "ĠE": 411,
      "ĠP": 412,
      "Ġare": 413,
      "ain": 414,
      "ĠM": 415,
      "Ġwith": 416,
      "ss": 417,
      "Ġsu": 418,
      "ĠR": 419,
      "ve": 420,
      "ance": 421,
      "ments": 422,
      "Ġbe": 423,
      "ce": 424,
      "Ġv": 425,
      "ant": 426,
      "um": 427,
      "ations": 428,
      "cc": 429,
      "end": 430,
      "ck": 431,
      "Ġwh": 432,
      "ompan": 433,
      "âĢĭ": 434,
      "ount": 435,
      "In": 436,
      "Ġan": 437,
      "Ġby": 438,
      "Ġthat": 439,
      "od": 440,
      "Ġres": 441,
      "30": 442,
      "Ġass": 443,
      "ome": 444,
      "ompany": 445,
      "10": 446,
      "lud": 447,
      "pp": 448,
      "ĠO": 449,
      "orm": 450,
      "eg": 451,
      "ust": 452,
      "ans": 453,
      "omm": 454,
      "are": 455,
      "Ġ$": 456,
      "ep": 457,
      "air": 458,
      "alue": 459,
      "iz": 460,
      "ĠN": 461,
      "uct": 462,
      "and": 463,
      "inanc": 464,
      "illion": 465,
      "ad": 466,
      "Ġwe": 467,
      "Ġad": 468,
      "2024": 469,
      "rom": 470,
      "ff": 471,
      "Ġexp": 472,
      "Ġper": 473,
      "low": 474,
      "ĠB": 475,
      "Ġpr": 476,
      "0001": 477,
      "Ġy": 478,
      "am": 479,
      "ib": 480,
      "Ġcomp": 481,
      "ĠThe": 482,
      "ost": 483,
      "ets": 484,
      "ition": 485,
      "Ġat": 486,
      "ase": 487,
      "Ġal": 488,
      "inancial": 489,
      "Ġfrom": 490,
      "os": 491,
      "its": 492,
      "ax": 493,
      "ear": 494,
      "ign": 495,
      "ÂłÂł": 496,
      "Ġother": 497,
      "ating": 498,
      "Ġinclud": 499,
      "ip": 500,
      "Ġlo": 501,
      "art": 502,
      "ĠW": 503,
      "ore": 504,
      "2025": 505,
      "ult": 506,
      "ecur": 507,
      "Ġnot": 508,
      "Ġsh": 509,
      "Ġ1": 510,
      "âĢĻ": 511,
      "ard": 512,
      "ĠIn": 513,
      "ĠCompany": 514,
      "ire": 515,
      "Ġch": 516,
      "Ġoper": 517,
      "ere": 518,
      "ock": 519,
      "tain": 520,
      "vest": 521,
      "ĠL": 522,
      "form": 523,
      "ash": 524,
      "ility": 525,
      "erv": 526,
      "ely": 527,
      "ark": 528,
      "igh": 529,
      "ased": 530,
      "ow": 531,
      "Ġtr": 532,
      "ements": 533,
      "ich": 534,
      "Ġim": 535,
      "duct": 536,
      "pt": 537,
      "Ġrep": 538,
      "ev": 539,
      "ld": 540,
      "Ġus": 541,
      "ĠH": 542,
      "Ġ20": 543,
      "Ġdis": 544,
      "Ġinter": 545,
      "ary": 546,
      "Ġimp": 547,
      "2023": 548,
      "Ġwhich": 549,
      "ag": 550,
      "ecember": 551,
      "Ġle": 552,
      "ents": 553,
      "__": 554,
      "09": 555,
      "ĠU": 556,
      "Ġam": 557,
      "Ġun": 558,
      "Ġha": 559,
      "ates": 560,
      "19": 561,
      "Ġrec": 562,
      "iness": 563,
      "Ġtax": 564,
      "Ġcons": 565,
      "Ġacc": 566,
      "usiness": 567,
      "ĠJ": 568,
      "ac": 569,
      "Ġmay": 570,
      "ĠG": 571,
      "ĠCon": 572,
      "urre": 573,
      "Ġrel": 574,
      "ang": 575,
      "Ġapp": 576,
      "Ġhave": 577,
      "ould": 578,
      "ice": 579,
      "eb": 580,
      "ru": 581,
      "Ġli": 582,
      "Ġreg": 583,
      "Ġcost": 584,
      "Ġfinancial": 585,
      "ĠSt": 586,
      "un": 587,
      "Ġmillion": 588,
      "Ġnet": 589,
      "Other": 590,
      "Ġincome": 591,
      "ee": 592,
      "Ġcomm": 593,
      "Ġresult": 594,
      "ange": 595,
      "ffect": 596,
      "Value": 597,
      "ings": 598,
      "nder": 599,
      "enef": 600,
      "ĠDecember": 601,
      "Ġsub": 602,
      "ew": 603,
      "fer": 604,
      "The": 605,
      "15": 606,
      "dition": 607,
      "tract": 608,
      "redit": 609,
      "Ġbusiness": 610,
      "Ġinvest": 611,
      "age": 612,
      "'s": 613,
      "erm": 614,
      "ilities": 615,
      "Ġman": 616,
      "ual": 617,
      "rou": 618,
      "ific": 619,
      "03": 620,
      "olid": 621,
      "ized": 622,
      "Ġint": 623,
      "Ġassets": 624,
      "ices": 625,
      "Ġpre": 626,
      "Fair": 627,
      "ecurities": 628,
      "ese": 629,
      "Ġ2024": 630,
      "isk": 631,
      "Ġrev": 632,
      "Ġpl": 633,
      "ors": 634,
      "ight": 635,
      "Ġmark": 636,
      "2022": 637,
      "Ġyear": 638,
      "17": 639,
      "ell": 640,
      "Ġ2025": 641,
      "lect": 642,
      "ater": 643,
      "Ġcont": 644,
      "our": 645,
      "Ġvalue": 646,
      "ended": 647,
      "2021": 648,
      "ertain": 649,
      "old": 650,
      "Ġproduct": 651,
      "olidated": 652,
      "orp": 653,
      "gre": 654,
      "..": 655,
      "io": 656,
      "13": 657,
      "Ġunder": 658,
      "06": 659,
      "gy": 660,
      "over": 661,
      "Ġcash": 662,
      "Ġincre": 663,
      "FairValue": 664,
      "ior": 665,
      "Ġshare": 666,
      "Ġpart": 667,
      "27": 668,
      "Ġwas": 669,
      "14": 670,
      "ical": 671,
      "Con": 672,
      "iod": 673,
      "eas": 674,
      "18": 675,
      "orpor": 676,
      "ist": 677,
      "ative": 678,
      "Ġrequ": 679,
      "ebt": 680,
      "Ġ31": 681,
      "Ġexpens": 682,
      "nter": 683,
      "Ġact": 684,
      "16": 685,
      "ener": 686,
      "Ġit": 687,
      "ail": 688,
      "ine": 689,
      "atements": 690,
      "ak": 691,
      "04": 692,
      "29": 693,
      "Ġprov": 694,
      "ital": 695,
      "Ġserv": 696,
      "ustom": 697,
      "Ġ-": 698,
      "Ġincluding": 699,
      "âĢľ": 700,
      "âĢĿ": 701,
      "07": 702,
      "ong": 703,
      "bl": 704,
      "28": 705,
      "ON": 706,
      "TE": 707,
      "egment": 708,
      "Ġequ": 709,
      "Ġinterest": 710,
      "ures": 711,
      "Ġperiod": 712,
      "su": 713,
      "ĠTh": 714,
      "Ġstock": 715,
      "Ġits": 716,
      "Ġest": 717,
      "25": 718,
      "Ġcould": 719,
      "Ġab": 720,
      "abilities": 721,
      "Ġrelated": 722,
      "urch": 723,
      "gh": 724,
      "ĠEx": 725,
      "Ġac": 726,
      "Ġout": 727,
      "eve": 728,
      "ord": 729,
      "urrent": 730,
      "otal": 731,
      "Ġind": 732,
      "otes": 733,
      "Ġqu": 734,
      "uring": 735,
      "IN": 736,
      "rol": 737,
      "ject": 738,
      "ri": 739,
      "Ġtrans": 740,
      "pect": 741,
      "ach": 742,
      "enefit": 743,
      "Ġreven": 744,
      "con": 745,
      "apital": 746,
      "ined": 747,
      "ĠWe": 748,
      "Ġreport": 749,
      "Ġcl": 750,
      "Ġloss": 751,
      "Ġrisk": 752,
      "Ġcosts": 753,
      "put": 754,
      "Ġsuch": 755,
      "Ġ2023": 756,
      "Ġcustom": 757,
      "Ġsal": 758,
      "ory": 759,
      "Ġthese": 760,
      "Ġoperations": 761,
      "formation": 762,
      "Total": 763,
      "just": 764,
      "Ġcertain": 765,
      "24": 766,
      "ack": 767,
      "âĢ¢": 768,
      "agement": 769,
      "26": 770,
      "AN": 771,
      "Ġregul": 772,
      "Ġended": 773,
      "Ġmarket": 774,
      "Ġpay": 775,
      "ence": 776,
      "Ġamount": 777,
      "Ġany": 778,
      "Ġprovid": 779,
      "row": 780,
      "und": 781,
      "erc": 782,
      "Ġthis": 783,
      "And": 784,
      "ĠInc": 785,
      "Ġdo": 786,
      "evel": 787,
      "Ġup": 788,
      "isc": 789,
      "ibut": 790,
      "11": 791,
      "tribut": 792,
      "gr": 793,
      "Ġappro": 794,
      "ass": 795,
      "so": 796,
      "onth": 797,
      "ty": 798,
      "35": 799,
      "ry": 800,
      "Ġimpact": 801,
      "enc": 802,
      "sid": 803,
      "Ġrate": 804,
      "Ġeffect": 805,
      "ward": 806,
      "Ġover": 807,
      "ci": 808,
      "Ġdisc": 809,
      "Ġwere": 810,
      "easure": 811,
      "aw": 812,
      "Ġfair": 813,
      "ER": 814,
      "all": 815,
      "oreign": 816,
      "Ġyou": 817,
      "ability": 818,
      "Ġtim": 819,
      "alu": 820,
      "Comm": 821,
      "ily": 822,
      "anges": 823,
      "inc": 824,
      "Ġaddition": 825,
      "Ġ2022": 826,
      "Ġcontract": 827,
      "Net": 828,
      "Acc": 829,
      "AR": 830,
      "puts": 831,
      "____": 832,
      "ree": 833,
      "loy": 834,
      "ĠâĢľ": 835,
      "Ġdue": 836,
      "Ġproducts": 837,
      "Inc": 838,
      "Ġhe": 839,
      "ork": 840,
      "Ġev": 841,
      "Ġoperating": 842,
      "Level": 843,
      "34": 844,
      "00008": 845,
      "change": 846,
      "Ġdef": 847,
      "05": 848,
      "nc": 849,
      "Ġem": 850,
      "urance": 851,
      "Ġwill": 852,
      "itions": 853,
      "Ġ2021": 854,
      "arn": 855,
      "ally": 856,
      "St": 857,
      "Ġinformation": 858,
      "ollow": 859,
      "Ġgener": 860,
      "ees": 861,
      "Ġcredit": 862,
      "op": 863,
      "Ġ10": 864,
      "aterial": 865,
      "Ġen": 866,
      "ively": 867,
      "los": 868,
      "ast": 869,
      "ploy": 870,
      "EN": 871,
      "ex": 872,
      "Ġsp": 873,
      "Ġall": 874,
      "2020": 875,
      "istr": 876,
      "We": 877,
      "Pl": 878,
      "ited": 879,
      "ired": 880,
      "39": 881,
      "onths": 882,
      "Ġdec": 883,
      "uture": 884,
      "Ġhas": 885,
      "ix": 886,
      "ied": 887,
      "Ġfollow": 888,
      "rough": 889,
      "enior": 890,
      "Ex": 891,
      "perating": 892,
      "ech": 893,
      "ĠV": 894,
      "lop": 895,
      "Ġnon": 896,
      "og": 897,
      "arg": 898,
      "Ġliabilities": 899,
      "ible": 900,
      "vers": 901,
      "Ġrespect": 902,
      "Ġestim": 903,
      "Ġprim": 904,
      "evelop": 905,
      "eth": 906,
      "74": 907,
      "Ġacqu": 908,
      "ases": 909,
      "iss": 910,
      "Ġresults": 911,
      "Ġoff": 912,
      "les": 913,
      "Ġaccount": 914,
      "Non": 915,
      "75": 916,
      "ĠCont": 917,
      "ok": 918,
      "gain": 919,
      "Ġfuture": 920,
      "Inter": 921,
      "arily": 922,
      "no": 923,
      "solidated": 924,
      "22": 925,
      "ignific": 926,
      "irect": 927,
      "36": 928,
      "ÂłÂłÂłÂł": 929,
      "Ġmaterial": 930,
      "ignificant": 931,
      "OR": 932,
      "ĠY": 933,
      "Ġrequire": 934,
      "Ġk": 935,
      "Inputs": 936,
      "Ġalso": 937,
      "surance": 938,
      "Def": 939,
      "ES": 940,
      "Ġfil": 941,
      "Ġdebt": 942,
      "ulated": 943,
      "FairValueInputs": 944,
      "FairValueInputsLevel": 945,
      "ept": 946,
      "Ġstatements": 947,
      "ĠFinancial": 948,
      "Ġcapital": 949,
      "Ġthrough": 950,
      "ÂłÂłčĊ": 951,
      "49": 952,
      "alance": 953,
      "Ġsales": 954,
      "ank": 955,
      "38": 956,
      "ization": 957,
      "Ġperform": 958,
      "arter": 959,
      "Ġent": 960,
      "ĠCh": 961,
      "Ġservices": 962,
      "arch": 963,
      "Ġchanges": 964,
      "76": 965,
      "Ġsupp": 966,
      "ner": 967,
      "Ġinto": 968,
      "ogn": 969,
      "Ġtheir": 970,
      "hold": 971,
      "ia": 972,
      "Ġexpect": 973,
      "Ġbased": 974,
      "ous": 975,
      "Ġprimarily": 976,
      "gram": 977,
      "Ġj": 978,
      "Ġsecurities": 979,
      "eptember": 980,
      "oll": 981,
      "Pro": 982,
      "ote": 983,
      "blig": 984,
      "08": 985,
      "li": 986,
      "Ġcan": 987,
      "eriv": 988,
      "Ġstr": 989,
      "Ġissu": 990,
      "Ġdet": 991,
      "ose": 992,
      "ues": 993,
      "Ġexpense": 994,
      "Ġconsolidated": 995,
      "Ġmanagement": 996,
      "ately": 997,
      "Table": 998,
      "ident": 999,
      "Ġhis": 1000,
      "Ġsignificant": 1001,
      "rt": 1002,
      "ond": 1003,
      "Ġsubject": 1004,
      "edg": 1005,
      "Ġcurrent": 1006,
      "ptions": 1007,
      "78": 1008,
      "ric": 1009,
      "Ġrevenue": 1010,
      "overn": 1011,
      "ood": 1012,
      "AL": 1013,
      "Benefit": 1014,
      "Ġtime": 1015,
      "arnings": 1016,
      "Ġcommon": 1017,
      "ercial": 1018,
      "int": 1019,
      "Ġterm": 1020,
      "Ġrece": 1021,
      "Operating": 1022,
      "aid": 1023,
      "Ġdevelop": 1024,
      "Ġme": 1025,
      "av": 1026,
      "Segment": 1027,
      "Lo": 1028,
      "ational": 1029,
      "...": 1030,
      "Ġactiv": 1031,
      "ection": 1032,
      "ingMember": 1033,
      "Ġcustomers": 1034,
      "69": 1035,
      "sent": 1036,
      "ives": 1037,
      "atory": 1038,
      "million": 1039,
      "urn": 1040,
      "tem": 1041,
      "out": 1042,
      "ension": 1043,
      "ĠForm": 1044,
      "ise": 1045,
      "Ġ30": 1046,
      "Ġret": 1047,
      "urrenc": 1048,
      "58": 1049,
      "Interest": 1050,
      "Ġincrease": 1051,
      "ade": 1052,
      "nal": 1053,
      "),": 1054,
      "ious": 1055,
      "sMember": 1056,
      "Ġcontin": 1057,
      "esign": 1058,
      "atur": 1059,
      "ĠAct": 1060,
      ").": 1061,
      "IT": 1062,
      "of": 1063,
      "Un": 1064,
      "ption": 1065,
      "Notes": 1066,
      "egments": 1067,
      "44": 1068,
      "ified": 1069,
      "23": 1070,
      "Ġexpenses": 1071,
      "Th": 1072,
      "Ġmonths": 1073,
      "Ġnew": 1074,
      "greement": 1075,
      "ivid": 1076,
      "cess": 1077,
      "Ġdep": 1078,
      "Ġinst": 1079,
      "ile": 1080,
      "Ġvar": 1081,
      "79": 1082,
      "Ġrates": 1083,
      "US": 1084,
      "Ġfund": 1085,
      "Ġoblig": 1086,
      "urchase": 1087,
      "21": 1088,
      "ata": 1089,
      "Ġyears": 1090,
      "ov": 1091,
      "eport": 1092,
      "Ad": 1093,
      "verage": 1094,
      "ĠContents": 1095,
      "itt": 1096,
      "ace": 1097,
      "Ġif": 1098,
      "Ġequity": 1099,
      "term": 1100,
      "orporate": 1101,
      "hip": 1102,
      "ĠHe": 1103,
      "Ġrecogn": 1104,
      "olic": 1105,
      "Ġshares": 1106,
      "Ġaffect": 1107,
      "lement": 1108,
      "Ġcontrol": 1109,
      "Ġemploy": 1110,
      "own": 1111,
      "illions": 1112,
      "Ġadvers": 1113,
      "ĠPro": 1114,
      "ĠK": 1115,
      "ross": 1116,
      "umulated": 1117,
      "Ġinvestments": 1118,
      "Ġincluded": 1119,
      "Ġinvestment": 1120,
      "Ġflow": 1121,
      "Ġhigh": 1122,
      "Ġrem": 1123,
      "srt": 1124,
      "Ġfollowing": 1125,
      "Ġrest": 1126,
      "nolo": 1127,
      "echnolo": 1128,
      "Stock": 1129,
      "55": 1130,
      "ffic": 1131,
      "ĠSeptember": 1132,
      "one": 1133,
      "yst": 1134,
      "ett": 1135,
      "lic": 1136,
      "68": 1137,
      "urrency": 1138,
      "eld": 1139,
      "ĠIN": 1140,
      "ake": 1141,
      "Ġrecord": 1142,
      "Ġlaw": 1143,
      "ensive": 1144,
      "77": 1145,
      "Ġlosses": 1146,
      "SegmentMember": 1147,
      "ensation": 1148,
      "vail": 1149,
      "une": 1150,
      "Ġbeen": 1151,
      "imum": 1152,
      "ĠStatements": 1153,
      "rict": 1154,
      "Securities": 1155,
      "Ġbillion": 1156,
      "anding": 1157,
      "Ass": 1158,
      "nual": 1159,
      "Ġperformance": 1160,
      "Ġmore": 1161,
      "pr": 1162,
      "Ġquarter": 1163,
      "Defined": 1164,
      "du": 1165,
      "33": 1166,
      "quity": 1167,
      "Ġeach": 1168,
      "ems": 1169,
      "Ġthan": 1170,
      "iscal": 1171,
      "se": 1172,
      "ured": 1173,
      "02": 1174,
      "Cash": 1175,
      "mer": 1176,
      "As": 1177,
      "oint": 1178,
      "ances": 1179,
      "Ġtransact": 1180,
      "ared": 1181,
      "Measure": 1182,
      "ird": 1183,
      "ĠUn": 1184,
      "Ġfac": 1185,
      "99": 1186,
      "Ġadjust": 1187,
      "DefinedBenefit": 1188,
      "Ġadditional": 1189,
      "2026": 1190,
      "asis": 1191,
      "ĠMarch": 1192,
      "hare": 1193,
      "reh": 1194,
      "ĠConsolidated": 1195,
      "oci": 1196,
      "rehensive": 1197,
      "Ġcar": 1198,
      "xim": 1199,
      "Ġport": 1200,
      "Ġlong": 1201,
      "perty": 1202,
      "48": 1203,
      "ish": 1204,
      "Ġprogram": 1205,
      "Ġrespectively": 1206,
      "Contract": 1207,
      "Ġwell": 1208,
      "sidi": 1209,
      "Ġbo": 1210,
      "Income": 1211,
      "Ġ2020": 1212,
      "Ġprice": 1213,
      "olv": 1214,
      "pos": 1215,
      "Ġpur": 1216,
      "Ġno": 1217,
      "Ġag": 1218,
      "fol": 1219,
      "ecurity": 1220,
      "Ġduring": 1221,
      "aus": 1222,
      "50": 1223,
      "Ġ.": 1224,
      "ĠAs": 1225,
      "Ġar": 1226,
      "ants": 1227,
      "Ġreceiv": 1228,
      "ĠReport": 1229,
      "Ġinclude": 1230,
      "ceed": 1231,
      "erred": 1232,
      "Ġactivities": 1233,
      "Ġref": 1234,
      "Ġacquis": 1235,
      "ict": 1236,
      "ecut": 1237,
      "eal": 1238,
      "ĠNotes": 1239,
      "ners": 1240,
      "ID": 1241,
      "the": 1242,
      "ustr": 1243,
      "Ġreporting": 1244,
      "incip": 1245,
      "ower": 1246,
      "AT": 1247,
      "ever": 1248,
      "ĠPl": 1249,
      "Ġdeterm": 1250,
      "Ġforeign": 1251,
      "overnment": 1252,
      "hib": 1253,
      "Ġrefer": 1254,
      "Ġincreased": 1255,
      "59": 1256,
      "ATE": 1257,
      "umber": 1258,
      "cont": 1259,
      "Credit": 1260,
      "eed": 1261,
      "Ġher": 1262,
      "ret": 1263,
      "Tr": 1264,
      "lob": 1265,
      "tal": 1266,
      "'t": 1267,
      "46": 1268,
      "Ġapproxim": 1269,
      "standing": 1270,
      "Ġcontracts": 1271,
      "Ġavail": 1272,
      "Ġmillions": 1273,
      "Ġapplic": 1274,
      "Ġ2": 1275,
      "Ġgrow": 1276,
      "cr": 1277,
      "Ġlease": 1278,
      "IC": 1279,
      "folio": 1280,
      "Ġone": 1281,
      "Ġcompany": 1282,
      "ĠComm": 1283,
      "Ġuse": 1284,
      "Ġ4": 1285,
      "Ġused": 1286,
      "Ġbasis": 1287,
      "Ġ\"": 1288,
      "ling": 1289,
      "EC": 1290,
      "000": 1291,
      "Ġlim": 1292,
      "Ġrequired": 1293,
      "Ġ3": 1294,
      "Ġthere": 1295,
      "Accumulated": 1296,
      "Ġrevenues": 1297,
      "Ġamounts": 1298,
      "IS": 1299,
      "Ġvalu": 1300,
      "even": 1301,
      "Plans": 1302,
      "Ġplan": 1303,
      "Ġderiv": 1304,
      "Ġgr": 1305,
      "ables": 1306,
      "ite": 1307,
      "Ġtotal": 1308,
      "Ġdif": 1309,
      "Ġdata": 1310,
      "we": 1311,
      "Ġ2026": 1312,
      "Ġconsid": 1313,
      "ub": 1314,
      "ĠWh": 1315,
      "ced": 1316,
      "ame": 1317,
      "aim": 1318,
      "anu": 1319,
      "Ġearnings": 1320,
      "Ġfiled": 1321,
      "ubl": 1322,
      "OL": 1323,
      "icip": 1324,
      "ĠAn": 1325,
      "olut": 1326,
      "Debt": 1327,
      "Ġcond": 1328,
      "ĠOur": 1329,
      "Ġfiscal": 1330,
      "ind": 1331,
      "lectric": 1332,
      "uar": 1333,
      "Segments": 1334,
      "ties": 1335,
      "ys": 1336,
      "FairValueMeasure": 1337,
      "Ġtaxes": 1338,
      "Ġregulatory": 1339,
      "Ġbut": 1340,
      "irst": 1341,
      "ĠAN": 1342,
      "nergy": 1343,
      "ixed": 1344,
      "Ġthird": 1345,
      "Ġthree": 1346,
      "Ġfact": 1347,
      "2019": 1348,
      "ĠJune": 1349,
      "Ġwithin": 1350,
      "Ġ8": 1351,
      "Invest": 1352,
      "cent": 1353,
      "Senior": 1354,
      "ands": 1355,
      "Ġability": 1356,
      "ke": 1357,
      "Ġdr": 1358,
      "lobal": 1359,
      "Ġsegment": 1360,
      "wo": 1361,
      "Ġasset": 1362,
      "56": 1363,
      "enefits": 1364,
      "Ġmain": 1365,
      "Ġapproximately": 1366,
      "âĢĵ": 1367,
      "Ġobligations": 1368,
      "ruct": 1369,
      "ially": 1370,
      "Foreign": 1371,
      "lass": 1372,
      "aries": 1373,
      "SegmentsMember": 1374,
      "Ġexpected": 1375,
      "uth": 1376,
      "roup": 1377,
      "Ġthose": 1378,
      "iven": 1379,
      "Ġassoci": 1380,
      "Ġreal": 1381,
      "Ġservice": 1382,
      "umer": 1383,
      "ENT": 1384,
      "Ġbet": 1385,
      "nded": 1386,
      "Ġright": 1387,
      "Ġassum": 1388,
      "Ġrecorded": 1389,
      "ission": 1390,
      "Ġconsider": 1391,
      "Ġtechnolo": 1392,
      "uss": 1393,
      "Ġrisks": 1394,
      "clud": 1395,
      "eral": 1396,
      "Ġrequirements": 1397,
      "For": 1398,
      "00009": 1399,
      "ll": 1400,
      "________": 1401,
      "Ġob": 1402,
      "32": 1403,
      "Due": 1404,
      "ĠStock": 1405,
      "Ġow": 1406,
      "for": 1407,
      "Ġrecognized": 1408,
      "Ġwould": 1409,
      "uthor": 1410,
      "ision": 1411,
      "Ġwhen": 1412,
      "loss": 1413,
      "hibit": 1414,
      "ublic": 1415,
      "Ġsubsidi": 1416,
      "Ġmat": 1417,
      "37": 1418,
      "96": 1419,
      "ringMember": 1420,
      "Ġsyst": 1421,
      "ĠReg": 1422,
      "part": 1423,
      "Ġdecre": 1424,
      "holders": 1425,
      "Our": 1426,
      "FairValueMeasurements": 1427,
      "based": 1428,
      "Ġdate": 1429,
      "Ġcurrency": 1430,
      "ĠThese": 1431,
      "anuary": 1432,
      "Ġdirect": 1433,
      "eli": 1434,
      "Ġgain": 1435,
      "OperatingSegmentsMember": 1436,
      "Ġ,": 1437,
      "ĠAd": 1438,
      "Ġmod": 1439,
      "54": 1440,
      "Of": 1441,
      "SecuritiesMember": 1442,
      "Ġclaim": 1443,
      "Ch": 1444,
      "Ġagre": 1445,
      "Ġchange": 1446,
      "vent": 1447,
      "ning": 1448,
      "Ġpos": 1449,
      "Ġcustomer": 1450,
      "ause": 1451,
      "irement": 1452,
      "Ġshe": 1453,
      "Ġsee": 1454,
      "ividend": 1455,
      "atives": 1456,
      "Recur": 1457,
      "ecured": 1458,
      "rit": 1459,
      "ĠTr": 1460,
      "Ġcompet": 1461,
      "Ġassociated": 1462,
      "ense": 1463,
      "ination": 1464,
      "ays": 1465,
      "alth": 1466,
      "Ġhim": 1467,
      "Ġthey": 1468,
      "ĠNote": 1469,
      "Rate": 1470,
      "Ġpolic": 1471,
      "ĠFor": 1472,
      "Ġgrowth": 1473,
      "OM": 1474,
      "Ġbenefit": 1475,
      "Ġavailable": 1476,
      "ederal": 1477,
      "Ġprocess": 1478,
      "orrow": 1479,
      "inancing": 1480,
      "Ġoutstanding": 1481,
      "ecutive": 1482,
      "anagement": 1483,
      "Ġcompensation": 1484,
      "RecurringMember": 1485,
      "ricted": 1486,
      "esignated": 1487,
      "ED": 1488,
      "FairValueMeasurementsRecurringMember": 1489,
      "ines": 1490,
      "els": 1491,
      "efore": 1492,
      "ĠEnded": 1493,
      "af": 1494,
      "AP": 1495,
      "Ġspec": 1496,
      "ruments": 1497,
      "orporated": 1498,
      "Ġcount": 1499,
      "fact": 1500,
      "Ġwork": 1501,
      "Ġnotes": 1502,
      "Ġdevelopment": 1503,
      "ife": 1504,
      "gage": 1505,
      "ons": 1506,
      "omic": 1507,
      "ipment": 1508,
      "Item": 1509,
      "Ġprincip": 1510,
      "ollar": 1511,
      "Ġlaws": 1512,
      "uarant": 1513,
      "57": 1514,
      "Ġtable": 1515,
      "Ġloans": 1516,
      "Ġprovide": 1517,
      "AS": 1518,
      "orporation": 1519,
      "ION": 1520,
      "ild": 1521,
      "Ġprior": 1522,
      "ĠShe": 1523,
      "ateg": 1524,
      "UR": 1525,
      "ale": 1526,
      "ading": 1527,
      "ĠNo": 1528,
      "DefinedBenefitMember": 1529,
      "ional": 1530,
      "Am": 1531,
      "Ġcompared": 1532,
      "Ġflows": 1533,
      "Ġpayments": 1534,
      "Ġext": 1535,
      "PlansDefinedBenefitMember": 1536,
      "Ġexchange": 1537,
      "98": 1538,
      "Ġaccounting": 1539,
      "ential": 1540,
      "andard": 1541,
      "Ġplans": 1542,
      "40": 1543,
      "Ġkn": 1544,
      "Ġpresent": 1545,
      "ĠInter": 1546,
      "ival": 1547,
      "Ġgenerally": 1548,
      "Rec": 1549,
      "66": 1550,
      "Ġreference": 1551,
      "ued": 1552,
      "gan": 1553,
      "ress": 1554,
      "Ġconditions": 1555,
      "Ġvol": 1556,
      "ween": 1557,
      "Ġeffective": 1558,
      "ath": 1559,
      "Ġnumber": 1560,
      "ĠAcc": 1561,
      "Ġdistribut": 1562,
      "oc": 1563,
      "Ġdel": 1564,
      "Common": 1565,
      "Equity": 1566,
      "itig": 1567,
      "Ġleg": 1568,
      "ize": 1569,
      "ortization": 1570,
      "arket": 1571,
      "ompanies": 1572,
      "ide": 1573,
      "lation": 1574,
      "Ġregulations": 1575,
      "Ġissued": 1576,
      "Ġimpair": 1577,
      "ebru": 1578,
      "ĠExchange": 1579,
      "ebruary": 1580,
      "Ġhad": 1581,
      "Ġliability": 1582,
      "Ġbec": 1583,
      "Comp": 1584,
      "ending": 1585,
      "Ġproperty": 1586,
      "Ġmeasure": 1587,
      "Ġassess": 1588,
      "Ġbetween": 1589,
      "ING": 1590,
      "Ġreflect": 1591,
      "ĠAgreement": 1592,
      "ether": 1593,
      "res": 1594,
      "iron": 1595,
      "Ġallow": 1596,
      "ĠST": 1597,
      "Ġprof": 1598,
      "cept": 1599,
      "Ġgo": 1600,
      "arge": 1601,
      "ey": 1602,
      "Company": 1603,
      "wards": 1604,
      "Ġmarkets": 1605,
      "December": 1606,
      "ferred": 1607,
      "ethod": 1608,
      "Ġdiffer": 1609,
      "ification": 1610,
      "ove": 1611,
      "Pension": 1612,
      "Ġfactors": 1613,
      "Ġpot": 1614,
      "min": 1615,
      "Ġbenefits": 1616,
      "viron": 1617,
      "Ġlev": 1618,
      "CI": 1619,
      "Ġcompl": 1620,
      "ces": 1621,
      "ĠJanuary": 1622,
      "angible": 1623,
      "olving": 1624,
      "--": 1625,
      "Ġevalu": 1626,
      "ware": 1627,
      "Ġadversely": 1628,
      "Ġdisclos": 1629,
      "ortgage": 1630,
      "Ġlook": 1631,
      "Ġcap": 1632,
      "inimum": 1633,
      "urther": 1634,
      "Ġremain": 1635,
      "88": 1636,
      "Ġagain": 1637,
      "Ġagreements": 1638,
      "000000": 1639,
      "HE": 1640,
      "Ġlow": 1641,
      "to": 1642,
      "Ġbeli": 1643,
      "Ġgood": 1644,
      "Ġhigher": 1645,
      "Ġauthor": 1646,
      "Ġro": 1647,
      "Ġindustr": 1648,
      "Ġloc": 1649,
      "Commercial": 1650,
      "Ġecon": 1651,
      "Ġemployees": 1652,
      "Ġ(âĢľ": 1653,
      "suant": 1654,
      "ief": 1655,
      "Ġestimated": 1656,
      "ĠPlan": 1657,
      "meric": 1658,
      "olutions": 1659,
      "Ind": 1660,
      "ĠAND": 1661,
      "Ġbelow": 1662,
      "quid": 1663,
      "Ġbalance": 1664,
      "ĠOffic": 1665,
      "Loss": 1666,
      "Ġfirst": 1667,
      "Ġoffs": 1668,
      "Ġinf": 1669,
      "ĠInd": 1670,
      "national": 1671,
      "istrant": 1672,
      "Ġsome": 1673,
      "Plan": 1674,
      "Ġsale": 1675,
      "Ġabout": 1676,
      "fter": 1677,
      "vironment": 1678,
      "LL": 1679,
      "AC": 1680,
      ".,": 1681,
      "ili": 1682,
      "rying": 1683,
      "iew": 1684,
      "Ġexper": 1685,
      "Ġback": 1686,
      "Ġtransactions": 1687,
      "Ġvarious": 1688,
      "ĠYou": 1689,
      "Ġinsurance": 1690,
      "Serv": 1691,
      "iver": 1692,
      "ient": 1693,
      "Ġupon": 1694,
      "000009": 1695,
      "Ret": 1696,
      "Ġapplicable": 1697,
      "Ġreturn": 1698,
      "Ġgovernment": 1699,
      "Pr": 1700,
      "rel": 1701,
      "Ġclass": 1702,
      "ĠPre": 1703,
      "Ġacquisition": 1704,
      "SeniorNotes": 1705,
      "Year": 1706,
      "ĠSecurities": 1707,
      "Ġ5": 1708,
      "MENT": 1709,
      "iable": 1710,
      "Ġborrow": 1711,
      "Hedg": 1712,
      "67": 1713,
      "ĠBo": 1714,
      "Ġcontinue": 1715,
      "Ġhere": 1716,
      "Ġclaims": 1717,
      "Ġ--": 1718,
      "Ġord": 1719,
      "Ġreas": 1720,
      "Ġcondition": 1721,
      "100": 1722,
      "ury": 1723,
      "IE": 1724,
      "Ġaud": 1725,
      "Ġsubsidiaries": 1726,
      "Ġcommercial": 1727,
      "Ġperiods": 1728,
      "Ġconsist": 1729,
      "Ġincludes": 1730,
      "yp": 1731,
      "Ġop": 1732,
      "ighted": 1733,
      "amp": 1734,
      "ĠThis": 1735,
      "ources": 1736,
      "Ġtre": 1737,
      "ĠComp": 1738,
      "Ġmethod": 1739,
      "Ġproject": 1740,
      "irm": 1741,
      "ug": 1742,
      "Ġoffer": 1743,
      "greg": 1744,
      "Ġdividend": 1745,
      "Ġstat": 1746,
      "Ġinternal": 1747,
      "ĠOther": 1748,
      "Ġusing": 1749,
      "Ġsett": 1750,
      "Ġfunds": 1751,
      "rolling": 1752,
      "ministr": 1753,
      "count": 1754,
      "Ġdeferred": 1755,
      "Ġexist": 1756,
      "Ġexpos": 1757,
      "ĠOF": 1758,
      "Ġcom": 1759,
      "Ġqual": 1760,
      "Ġend": 1761,
      "ĠCON": 1762,
      "nership": 1763,
      "Balance": 1764,
      "arm": 1765,
      "round": 1766,
      "Ġ15": 1767,
      "Ġannual": 1768,
      "Ġheld": 1769,
      "ĠIncome": 1770,
      "Ġmanu": 1771,
      "Ġmanufact": 1772,
      "Ġmaintain": 1773,
      "gin": 1774,
      "atural": 1775,
      "ContractMember": 1776,
      "ian": 1777,
      "ivalents": 1778,
      "Ġhedg": 1779,
      "Ġredu": 1780,
      "Ġenter": 1781,
      "On": 1782,
      "alized": 1783,
      "Ġinstruments": 1784,
      "Ġestimates": 1785,
      "Corporate": 1786,
      "Ġimpairment": 1787,
      "Ġincur": 1788,
      "ically": 1789,
      "line": 1790,
      "Ġpercent": 1791,
      "Ġpaid": 1792,
      "Res": 1793,
      "ĠRes": 1794,
      "Ġunc": 1795,
      "000007": 1796,
      "ters": 1797,
      "45": 1798,
      "ĠTO": 1799,
      "will": 1800,
      "perations": 1801,
      "ober": 1802,
      "ency": 1803,
      "SU": 1804,
      "ĠAss": 1805,
      "Ġmake": 1806,
      "loc": 1807,
      "ounts": 1808,
      "ĠOfficer": 1809,
      "Ġhold": 1810,
      "Ġsupport": 1811,
      "ĠQ": 1812,
      "Ġdown": 1813,
      "ert": 1814,
      "Ġoffset": 1815,
      "72": 1816,
      "ÂłÂłÂłÂłÂłÂłÂłÂł": 1817,
      "Ġreason": 1818,
      "RE": 1819,
      "Ġterms": 1820,
      "ĠIt": 1821,
      "âĢĿ)": 1822,
      "ĠâĢĵ": 1823,
      "erson": 1824,
      "Ġregard": 1825,
      "IG": 1826,
      "Ġresp": 1827,
      "ule": 1828,
      "Ġwho": 1829,
      "vert": 1830,
      "Ġfr": 1831,
      "mentMember": 1832,
      "controlling": 1833,
      "ob": 1834,
      "Li": 1835,
      "edge": 1836,
      "Ġpurchase": 1837,
      "Ġwhere": 1838,
      "Ġexperi": 1839,
      "ĠExhibit": 1840,
      "Ġfin": 1841,
      "ĠâĢĶ": 1842,
      "ii": 1843,
      "ick": 1844,
      "ages": 1845,
      "Ġthem": 1846,
      "Assets": 1847,
      "Ġsell": 1848,
      "itive": 1849,
      "ics": 1850,
      "65": 1851,
      "Ġproceed": 1852,
      "ĠSu": 1853,
      "Ġcompanies": 1854,
      "Ġpotential": 1855,
      "71": 1856,
      "als": 1857,
      "acility": 1858,
      "Ġrecover": 1859,
      "isions": 1860,
      "Ġdated": 1861,
      "Ġaverage": 1862,
      "ope": 1863,
      "ĠCorporation": 1864,
      "Ġamong": 1865,
      "To": 1866,
      "Ġcharg": 1867,
      ",âĢĿ": 1868,
      "Ġafter": 1869,
      "Ġprovided": 1870,
      "Ġdem": 1871,
      "Ġdes": 1872,
      "Ġboth": 1873,
      "ĠIf": 1874,
      "Ġprices": 1875,
      "ÂłÂłÂłÂłčĊ": 1876,
      "Ġassumptions": 1877,
      "Ġdiscuss": 1878,
      "Ġsim": 1879,
      "Ġeconomic": 1880,
      "Ġ9": 1881,
      "Ġcomplet": 1882,
      "evenue": 1883,
      "ctober": 1884,
      "Ġ&": 1885,
      "oft": 1886,
      "Ġequipment": 1887,
      "reci": 1888,
      "Ġsystems": 1889,
      "ify": 1890,
      "country": 1891,
      "rang": 1892,
      "Ġtechnology": 1893,
      "ĠCredit": 1894,
      "ĠAm": 1895,
      "wap": 1896,
      "Ġ19": 1897,
      "uly": 1898,
      "Ġsc": 1899,
      "egr": 1900,
      "Pre": 1901,
      "PensionPlansDefinedBenefitMember": 1902,
      "Ġless": 1903,
      "Ġfees": 1904,
      "Ġfacilities": 1905,
      "ful": 1906,
      "Ġ2019": 1907,
      "Ġadverse": 1908,
      "ĠUnited": 1909,
      "tributable": 1910,
      "Ġneg": 1911,
      "pl": 1912,
      "41": 1913,
      "Ġ12": 1914,
      "party": 1915,
      "Ġapprov": 1916,
      "oss": 1917,
      "Ġcy": 1918,
      "ales": 1919,
      "Ġenvironment": 1920,
      "LE": 1921,
      "related": 1922,
      "ĠStates": 1923,
      "Ġclos": 1924,
      "pril": 1925,
      "stant": 1926,
      "Ġagainst": 1927,
      "Ġbr": 1928,
      "urchases": 1929,
      "Port": 1930,
      "Ġmade": 1931,
      "Share": 1932,
      "ink": 1933,
      "Adjust": 1934,
      "Ġprincipal": 1935,
      "ollect": 1936,
      "Ġstandard": 1937,
      "encies": 1938,
      "Ġfederal": 1939,
      "Ġgas": 1940,
      "Ġbusinesses": 1941,
      "inated": 1942,
      "AAP": 1943,
      "Ġliquid": 1944,
      "Ġpursuant": 1945,
      "Ġstate": 1946,
      "Ġful": 1947,
      "abl": 1948,
      "AY": 1949,
      "Ġpublic": 1950,
      "Ġgains": 1951,
      "ium": 1952,
      "liance": 1953,
      "Ġlower": 1954,
      "Ġph": 1955,
      "Ġocc": 1956,
      "Ġut": 1957,
      "ĠMay": 1958,
      "uild": 1959,
      "ĠPr": 1960,
      "mm": 1961,
      "Ġcomprehensive": 1962,
      "idential": 1963,
      "asury": 1964,
      "Ġgu": 1965,
      "Ġsecurity": 1966,
      "Ġcompon": 1967,
      "Ġhealth": 1968,
      "Ġfl": 1969,
      "Ġneed": 1970,
      "ĠEnergy": 1971,
      "itigation": 1972,
      "89": 1973,
      "arent": 1974,
      "AM": 1975,
      "Ġacquired": 1976,
      "ĠAl": 1977,
      "Note": 1978,
      "ety": 1979,
      "Ġderivative": 1980,
      "Rest": 1981,
      "Ġforward": 1982,
      "Asset": 1983,
      "rov": 1984,
      "Ġcal": 1985,
      "Ġso": 1986,
      "At": 1987,
      "Ġ6": 1988,
      "Ġgeneral": 1989,
      "argin": 1990,
      "oftware": 1991,
      "ET": 1992,
      "ĠOn": 1993,
      "Ġportfolio": 1994,
      "Ġown": 1995,
      "ĠFebruary": 1996,
      "hic": 1997,
      "Ġbefore": 1998,
      "Ġsm": 1999,
      "Ġdoes": 2000,
      "Ġident": 2001,
      "Ġcover": 2002,
      "00007": 2003,
      "Ġwhether": 2004,
      "Ġuncertain": 2005,
      "42": 2006,
      "port": 2007,
      "RO": 2008,
      "Ġfollows": 2009,
      "ĠItem": 2010,
      "secured": 2011,
      "Ġregarding": 2012,
      "Trans": 2013,
      "resent": 2014,
      "eries": 2015,
      "ovember": 2016,
      "ivers": 2017,
      "reciation": 2018,
      "Ġbelieve": 2019,
      "rued": 2020,
      "Ġinv": 2021,
      "mploy": 2022,
      "Ġant": 2023,
      "itures": 2024,
      "Ġprot": 2025,
      "ministrative": 2026,
      "Ġinit": 2027,
      "ensed": 2028,
      "Ġamortization": 2029,
      "Ġfurther": 2030,
      "Term": 2031,
      "ĠBank": 2032,
      "Ġabove": 2033,
      "StockMember": 2034,
      "Ġdesign": 2035,
      "Ġglobal": 2036,
      "Ġfinancing": 2037,
      "Capital": 2038,
      "Ġevents": 2039,
      "CON": 2040,
      "imate": 2041,
      "Ġmeet": 2042,
      "Ġfail": 2043,
      "ilar": 2044,
      "Ġconn": 2045,
      "CompanyMember": 2046,
      "001": 2047,
      "Ġgrant": 2048,
      "63": 2049,
      "ucture": 2050,
      "Ġpat": 2051,
      "ilut": 2052,
      "pense": 2053,
      "Ġpayment": 2054,
      "aximum": 2055,
      "Ġexisting": 2056,
      "Ġaggreg": 2057,
      "Ġknow": 2058,
      "gies": 2059,
      "Ġde": 2060,
      "dict": 2061,
      "Ġtyp": 2062,
      "ĠBoard": 2063,
      "urchased": 2064,
      "Insurance": 2065,
      "ound": 2066,
      "47": 2067,
      "Ġreported": 2068,
      "Ġlegal": 2069,
      "very": 2070,
      "Ġaccord": 2071,
      "âĺ": 2072,
      "Ġcarrying": 2073,
      "ounting": 2074,
      "Ġmatur": 2075,
      "Ġindustry": 2076,
      "pri": 2077,
      "ĠMonths": 2078,
      "ĠPart": 2079,
      "icing": 2080,
      "itut": 2081,
      "work": 2082,
      "Ġagreement": 2083,
      "Ġcharges": 2084,
      "Electric": 2085,
      "erg": 2086,
      "Minimum": 2087,
      "Ġadjustments": 2088,
      "Ġintangible": 2089,
      "ough": 2090,
      "Cost": 2091,
      "Ġdecrease": 2092,
      "Ġshort": 2093,
      "inued": 2094,
      "holder": 2095,
      "uris": 2096,
      "Ġ7": 2097,
      "ccess": 2098,
      "ipt": 2099,
      "Ġcoll": 2100,
      "Ġpolicies": 2101,
      "Ġse": 2102,
      "ĠAnnual": 2103,
      "Ġbank": 2104,
      "urisdict": 2105,
      "Ġadv": 2106,
      "isclos": 2107,
      "itments": 2108,
      "ĠINT": 2109,
      "cedures": 2110,
      "Ġaccounts": 2111,
      "ĠSenior": 2112,
      "ourt": 2113,
      "ences": 2114,
      "ĠChief": 2115,
      "avor": 2116,
      "Ġform": 2117,
      "Ġrepresent": 2118,
      "ĠOctober": 2119,
      "perties": 2120,
      "Ġtest": 2121,
      "Ġbegin": 2122,
      "Ġequivalents": 2123,
      "Ġunits": 2124,
      "Risk": 2125,
      "Ġsec": 2126,
      "entive": 2127,
      "ugust": 2128,
      "orth": 2129,
      "Per": 2130,
      "ĠDirect": 2131,
      "IES": 2132,
      "unct": 2133,
      "Ġleases": 2134,
      "serv": 2135,
      "Ġfixed": 2136,
      "Ġmargin": 2137,
      "aj": 2138,
      "led": 2139,
      "ablish": 2140,
      "Reg": 2141,
      "61": 2142,
      "Ġprograms": 2143,
      "Ġexclud": 2144,
      "Ġindic": 2145,
      "way": 2146,
      "Ġarrang": 2147,
      "ules": 2148,
      "ising": 2149,
      "Ġcyber": 2150,
      "Ġtwo": 2151,
      "Portfolio": 2152,
      "000001": 2153,
      "Ġperson": 2154,
      "endent": 2155,
      "Ġsame": 2156,
      "ollars": 2157,
      "ysis": 2158,
      "Ġportion": 2159,
      "ĠAmeric": 2160,
      "Sh": 2161,
      "Ġdefined": 2162,
      "Ġloan": 2163,
      "Ġattributable": 2164,
      "retirement": 2165,
      "Investment": 2166,
      "Ġco": 2167,
      "ness": 2168,
      "lim": 2169,
      "lying": 2170,
      "ĠShare": 2171,
      "ĠOperations": 2172,
      "Ġalloc": 2173,
      "ular": 2174,
      "Inst": 2175,
      "CH": 2176,
      "Ġdemand": 2177,
      "ĠApril": 2178,
      "aud": 2179,
      "side": 2180,
      "ised": 2181,
      "Cont": 2182,
      "MENTS": 2183,
      "Ġprofit": 2184,
      "Ġparties": 2185,
      "Ġsenior": 2186,
      "Ġcorporate": 2187,
      "Ġlimit": 2188,
      "ĠTHE": 2189,
      "orn": 2190,
      "enture": 2191,
      "realized": 2192,
      "ĠManagement": 2193,
      "âĪ": 2194,
      "ulation": 2195,
      "Ġfacility": 2196,
      "Gain": 2197,
      "aint": 2198,
      "Ġtransaction": 2199,
      "ÂłÂłÂł": 2200,
      "Ġoptions": 2201,
      "Financial": 2202,
      "Current": 2203,
      "struct": 2204,
      "Ġthen": 2205,
      "ĠEX": 2206,
      "ie": 2207,
      "Ġcalc": 2208,
      "Sub": 2209,
      "51": 2210,
      "udg": 2211,
      "Ġobtain": 2212,
      "eiv": 2213,
      "Product": 2214,
      "UN": 2215,
      "ister": 2216,
      "ĠSee": 2217,
      "Ġdeliver": 2218,
      "itted": 2219,
      "Ġmon": 2220,
      "ĠTax": 2221,
      "year": 2222,
      "Ġestablish": 2223,
      "Ġwhat": 2224,
      "sumer": 2225,
      "alk": 2226,
      "urope": 2227,
      "ĠRisk": 2228,
      "Ġreview": 2229,
      "Ġlimited": 2230,
      "TER": 2231,
      "ĠSEC": 2232,
      "Ġinterests": 2233,
      "OS": 2234,
      "43": 2235,
      "PS": 2236,
      "ained": 2237,
      "Ġyour": 2238,
      "Ġmatters": 2239,
      "Ġelect": 2240,
      "quent": 2241,
      "ĠRE": 2242,
      "Ġred": 2243,
      "Ġaggregate": 2244,
      "'re": 2245,
      "Ġsuccess": 2246,
      "Ġbro": 2247,
      "Dis": 2248,
      "ATED": 2249,
      "Ġdiscount": 2250,
      "Ġonly": 2251,
      "Ġposition": 2252,
      "Ġstrateg": 2253,
      "up": 2254,
      "Ġrights": 2255,
      "Ġgre": 2256,
      "Ġpriv": 2257,
      "Ġregistrant": 2258,
      "vious": 2259,
      "Ġcontribut": 2260,
      "Ġcommun": 2261,
      "101": 2262,
      "PortfolioSegmentMember": 2263,
      "cqu": 2264,
      "Ġintegr": 2265,
      "reasury": 2266,
      "ructuring": 2267,
      "Int": 2268,
      "lear": 2269,
      "):": 2270,
      "ĠSTATE": 2271,
      "abor": 2272,
      "Ġpartially": 2273,
      "ostretirement": 2274,
      "'m": 2275,
      "ĠExecutive": 2276,
      "Comprehensive": 2277,
      "ationship": 2278,
      "Ġsimilar": 2279,
      "tern": 2280,
      "Ġcompliance": 2281,
      "sident": 2282,
      "formance": 2283,
      "irc": 2284,
      "Ġdistribution": 2285,
      "INAN": 2286,
      "Three": 2287,
      "Ġawards": 2288,
      "ĠSection": 2289,
      "DA": 2290,
      "Ġparticip": 2291,
      "Ġacquisitions": 2292,
      "eler": 2293,
      "easures": 2294,
      "Ġanal": 2295,
      "odity": 2296,
      "Energy": 2297,
      "Ġlike": 2298,
      "Ġmost": 2299,
      "Ġ13": 2300,
      "Ġactions": 2301,
      "Gas": 2302,
      "Ġguarant": 2303,
      "Ġlic": 2304,
      "Ġdividends": 2305,
      "ĠNovember": 2306,
      "Ġtak": 2307,
      "ATION": 2308,
      "52": 2309,
      "Ġvalues": 2310,
      "Ġcontain": 2311,
      "Ġjurisdict": 2312,
      "Ġaccess": 2313,
      "Ġsubstant": 2314,
      "eck": 2315,
      "Ġnatural": 2316,
      "app": 2317,
      "iff": 2318,
      "ITE": 2319,
      "ĠNet": 2320,
      "NO": 2321,
      "earch": 2322,
      "CIAL": 2323,
      "ividual": 2324,
      "Ġlife": 2325,
      "ĠNew": 2326,
      "Ġsever": 2327,
      "Ġcrit": 2328,
      "Ġaccordance": 2329,
      "ĠServ": 2330,
      "Ġdetermined": 2331,
      "Ġprocedures": 2332,
      "Ġacross": 2333,
      "lev": 2334,
      "ĠAccounting": 2335,
      "billion": 2336,
      "Ġrestricted": 2337,
      "Co": 2338,
      "INANCIAL": 2339,
      "epar": 2340,
      "Ġvaluation": 2341,
      "Ġincurred": 2342,
      "energy": 2343,
      "Ġhist": 2344,
      "Est": 2345,
      "asing": 2346,
      "ries": 2347,
      "ditional": 2348,
      "IncomeMember": 2349,
      "erve": 2350,
      "ĠEquity": 2351,
      "Al": 2352,
      "lex": 2353,
      "mium": 2354,
      "acked": 2355,
      "Ġpension": 2356,
      "Ġprovides": 2357,
      "Ġsupply": 2358,
      "Fixed": 2359,
      "ĠAt": 2360,
      "ring": 2361,
      "OT": 2362,
      "Ġmaterially": 2363,
      "Ġestate": 2364,
      "Ġliquidity": 2365,
      "Ġconnection": 2366,
      "82": 2367,
      "Ġdriven": 2368,
      "less": 2369,
      "ients": 2370,
      "Ġvolum": 2371,
      "ffili": 2372,
      "Ġhow": 2373,
      "Ġenergy": 2374,
      "elf": 2375,
      "Ġdescr": 2376,
      "Ġexperience": 2377,
      "Ġadd": 2378,
      "62": 2379,
      "Deriv": 2380,
      "ateral": 2381,
      "elated": 2382,
      "Revenue": 2383,
      "equ": 2384,
      "000006": 2385,
      "Ġado": 2386,
      "000109": 2387,
      "Ġmult": 2388,
      "enses": 2389,
      "60": 2390,
      "Ġrepurchase": 2391,
      "ĠLL": 2392,
      "Ġlevel": 2393,
      "Ġorder": 2394,
      "Ġcor": 2395,
      "ajor": 2396,
      "Ġrat": 2397,
      "security": 2398,
      "Ġpayable": 2399,
      "mp": 2400,
      "Consolidated": 2401,
      "atement": 2402,
      "UT": 2403,
      "Ġremaining": 2404,
      "orld": 2405,
      "GE": 2406,
      "Ġpoint": 2407,
      "Ġcomb": 2408,
      "luding": 2409,
      "Ġincorporated": 2410,
      "ĠJuly": 2411,
      "acy": 2412,
      "Ġdepos": 2413,
      "ield": 2414,
      "oking": 2415,
      "Ġbeh": 2416,
      "err": 2417,
      "Ġdam": 2418,
      "Ġreceived": 2419,
      "000003": 2420,
      "Ġresulting": 2421,
      "SOL": 2422,
      "Ġsold": 2423,
      "echn": 2424,
      "Ġaffected": 2425,
      "ĠCO": 2426,
      "rec": 2427,
      "uck": 2428,
      "Ġte": 2429,
      "Ġpract": 2430,
      "Liabilities": 2431,
      "Fund": 2432,
      "Ġadministrative": 2433,
      "ten": 2434,
      "Ġmy": 2435,
      "avorable": 2436,
      "Ġnine": 2437,
      "eneral": 2438,
      "Ġemployee": 2439,
      "Ġexpend": 2440,
      "ĠAugust": 2441,
      "CE": 2442,
      "000004": 2443,
      "Exchange": 2444,
      "ather": 2445,
      "Ġlooks": 2446,
      "Ġsumm": 2447,
      "Ġstandards": 2448,
      "Earnings": 2449,
      "ably": 2450,
      "2018": 2451,
      "ĠRest": 2452,
      "Ġoption": 2453,
      "Ġshould": 2454,
      "ng": 2455,
      "Ġpresented": 2456,
      "atform": 2457,
      "Ġitems": 2458,
      "Ġgoodwill": 2459,
      "Ġestimate": 2460,
      "go": 2461,
      "Ġfore": 2462,
      "istered": 2463,
      "aper": 2464,
      "500": 2465,
      "Ġaudit": 2466,
      "ime": 2467,
      "80": 2468,
      "Power": 2469,
      "ont": 2470,
      "Ġcollect": 2471,
      "onc": 2472,
      "Ġsoftware": 2473,
      "Ġturn": 2474,
      "edi": 2475,
      "Ġsegments": 2476,
      "84": 2477,
      "Ġactual": 2478,
      "struction": 2479,
      "Ġdid": 2480,
      "00013": 2481,
      "Flow": 2482,
      "Ġcontrols": 2483,
      "Ġimplement": 2484,
      "Ġexposure": 2485,
      "Ġpricing": 2486,
      "Ġmeasures": 2487,
      "Ġsolutions": 2488,
      "Form": 2489,
      "erves": 2490,
      "ched": 2491,
      "ĠII": 2492,
      "Long": 2493,
      "ĠFINANCIAL": 2494,
      "53": 2495,
      "ĠPresident": 2496,
      "Mortgage": 2497,
      "Ġlead": 2498,
      "Management": 2499,
      "ercent": 2500,
      "Ġbre": 2501,
      "Ġrating": 2502,
      "Ġoccur": 2503,
      "Ġjust": 2504,
      "CashFlow": 2505,
      "Ġvari": 2506,
      "Ġoffic": 2507,
      "Ġrestrict": 2508,
      "Ġhistor": 2509,
      "Deferred": 2510,
      "DebtSecuritiesMember": 2511,
      "ĠPer": 2512,
      "ousands": 2513,
      "200": 2514,
      "cquis": 2515,
      "Ġmajor": 2516,
      "Ġbecause": 2517,
      "ĠSTATEMENTS": 2518,
      "Part": 2519,
      "%,": 2520,
      "Service": 2521,
      "InterestRate": 2522,
      "wise": 2523,
      "CONT": 2524,
      "poses": 2525,
      "Ġpolicy": 2526,
      "Ġderivatives": 2527,
      "IGH": 2528,
      "Investments": 2529,
      "uel": 2530,
      "PlanMember": 2531,
      "ĠINC": 2532,
      "mployee": 2533,
      "ras": 2534,
      "ories": 2535,
      "SeniorNotesMember": 2536,
      "Ġorgan": 2537,
      "Ġrelating": 2538,
      "Market": 2539,
      "Ġprevious": 2540,
      "eng": 2541,
      "grap": 2542,
      "Ġhead": 2543,
      "Ġconf": 2544,
      "Ġlitigation": 2545,
      "Percent": 2546,
      "ext": 2547,
      "Short": 2548,
      "ince": 2549,
      "SOLID": 2550,
      "current": 2551,
      "ĠInvest": 2552,
      "Ġtrade": 2553,
      "Ġentities": 2554,
      "Ġaround": 2555,
      "ortized": 2556,
      "Maximum": 2557,
      "Ġcirc": 2558,
      "Ġatt": 2559,
      "SOLIDATED": 2560,
      "Real": 2561,
      "Ġdon": 2562,
      "Ġther": 2563,
      "Ġjudg": 2564,
      "Ġprep": 2565,
      "Ġfe": 2566,
      "izes": 2567,
      "ĠLo": 2568,
      "Ġcare": 2569,
      "Sales": 2570,
      "Ġreceivable": 2571,
      "ining": 2572,
      "Ġcurrently": 2573,
      "Ġpurposes": 2574,
      "Ġbeginning": 2575,
      "ps": 2576,
      "mission": 2577,
      "Receiv": 2578,
      "ĠValue": 2579,
      "IR": 2580,
      "Ġreduce": 2581,
      "Ġindividual": 2582,
      "other": 2583,
      "000031": 2584,
      "Ġpower": 2585,
      "ograp": 2586,
      "Ġotherwise": 2587,
      "Ġexpenditures": 2588,
      "Ġopen": 2589,
      "64": 2590,
      "br": 2591,
      "pec": 2592,
      "________________": 2593,
      "Ġbeing": 2594,
      "ier": 2595,
      "iluted": 2596,
      "Ġdisru": 2597,
      "Ġnetwork": 2598,
      "Ġpres": 2599,
      "tructure": 2600,
      "ĠWhat": 2601,
      "Ġface": 2602,
      "Ġsuppli": 2603,
      "ĠQu": 2604,
      "70": 2605,
      "Ġobligation": 2606,
      "Ġallowance": 2607,
      "Ġreduct": 2608,
      "âĺĲ": 2609,
      "org": 2610,
      "insurance": 2611,
      "Ġmanufacturing": 2612,
      "Ġutil": 2613,
      "Ġkey": 2614,
      "Ġconsumer": 2615,
      "Ġinvent": 2616,
      "109": 2617,
      "ependent": 2618,
      "Ġunit": 2619,
      "ĠGroup": 2620,
      "read": 2621,
      "NOTE": 2622,
      "Ġmanag": 2623,
      "Consumer": 2624,
      "73": 2625,
      "Ġmany": 2626,
      "Ġposs": 2627,
      "OtherComprehensive": 2628,
      "Ġsecond": 2629,
      "000103": 2630,
      "orts": 2631,
      "ategy": 2632,
      "acity": 2633,
      "Equ": 2634,
      "Ġann": 2635,
      "Ġlevels": 2636,
      "eop": 2637,
      "00014": 2638,
      "Ġswap": 2639,
      "isclosure": 2640,
      "ĠRule": 2641,
      "Ġborrowings": 2642,
      "ĠTrans": 2643,
      "ecess": 2644,
      "Ġmet": 2645,
      "Ġexcept": 2646,
      "Ġincreases": 2647,
      "Ġenvironmental": 2648,
      "Ġactivity": 2649,
      "Ġhand": 2650,
      "Ġrelationship": 2651,
      "Ġrespons": 2652,
      "arr": 2653,
      "ah": 2654,
      "ibed": 2655,
      "IV": 2656,
      "ults": 2657,
      "Ġtrading": 2658,
      "Ġissuance": 2659,
      "icular": 2660,
      "ĠCash": 2661,
      "ĠAnd": 2662,
      "Retained": 2663,
      "Ġwr": 2664,
      "Ġconsideration": 2665,
      "alances": 2666,
      "Ġcre": 2667,
      "Ġreceivables": 2668,
      "AB": 2669,
      "ph": 2670,
      "aking": 2671,
      "ĠThey": 2672,
      "Ġins": 2673,
      "Ġadjusted": 2674,
      "Ġ2018": 2675,
      "ins": 2676,
      "stances": 2677,
      "rastructure": 2678,
      ".)": 2679,
      "Parent": 2680,
      "Ġlocal": 2681,
      "evolving": 2682,
      "Ġarrangements": 2683,
      "not": 2684,
      "Ġanticip": 2685,
      "OtherComprehensiveIncomeMember": 2686,
      "pplement": 2687,
      "ature": 2688,
      "Ġgross": 2689,
      "Designated": 2690,
      "Additional": 2691,
      "Loans": 2692,
      "Ġlik": 2693,
      "Ġpremium": 2694,
      "tt": 2695,
      "Instru": 2696,
      "ĠDirectors": 2697,
      "ators": 2698,
      "chi": 2699,
      "inal": 2700,
      "ĠDAY": 2701,
      "Ġsettlement": 2702,
      "ived": 2703,
      "Ġcomponents": 2704,
      "Ġcontinu": 2705,
      "Ġnow": 2706,
      "IL": 2707,
      "Ġcontractual": 2708,
      "pport": 2709,
      "atch": 2710,
      "Ġcompar": 2711,
      "MaximumMember": 2712,
      "ann": 2713,
      "Ġcybersecurity": 2714,
      "ĠLi": 2715,
      "AccumulatedOtherComprehensiveIncomeMember": 2716,
      "Pay": 2717,
      "90": 2718,
      "IGHT": 2719,
      "Ġcommitments": 2720,
      "00000049": 2721,
      "aep": 2722,
      "Ġperm": 2723,
      "Ġparticular": 2724,
      "ustomer": 2725,
      "Dep": 2726,
      "Ġthousands": 2727,
      "159": 2728,
      "elerated": 2729,
      "ĠHow": 2730,
      "Ġproperties": 2731,
      "ounc": 2732,
      "Ġcent": 2733,
      "Ġreasonable": 2734,
      "atively": 2735,
      "Ġcr": 2736,
      "Ġgroup": 2737,
      "ĠThere": 2738,
      "Ġinputs": 2739,
      "ittee": 2740,
      "ĠRO": 2741,
      "oney": 2742,
      "Treasury": 2743,
      "iqu": 2744,
      "AssetsMember": 2745,
      "cast": 2746,
      "Ġcountries": 2747,
      "Ġspecific": 2748,
      "Ġsaf": 2749,
      "Loan": 2750,
      "ntergy": 2751,
      "Two": 2752,
      "Weighted": 2753,
      "ina": 2754,
      "Government": 2755,
      "GAAP": 2756,
      "ĠYork": 2757,
      "icult": 2758,
      "Ġplatform": 2759,
      "ither": 2760,
      "ĠLLC": 2761,
      "lus": 2762,
      "September": 2763,
      "Ġvest": 2764,
      "Ġdoor": 2765,
      "Ġamended": 2766,
      "Ġtrad": 2767,
      "Hedging": 2768,
      "Ġmodel": 2769,
      "HedgingMember": 2770,
      "olicy": 2771,
      "cript": 2772,
      "Ġresources": 2773,
      "ditionally": 2774,
      "Ġset": 2775,
      "Ġproduction": 2776,
      "Ġconduct": 2777,
      "edic": 2778,
      "Ġel": 2779,
      "going": 2780,
      "Ġevent": 2781,
      "Ġachi": 2782,
      "ĠStatement": 2783,
      "sequent": 2784,
      "000113": 2785,
      "Ġnecess": 2786,
      "ĠAssets": 2787,
      "AD": 2788,
      "aluation": 2789,
      "atis": 2790,
      "Ġexcess": 2791,
      "Ġsystem": 2792,
      "ns": 2793,
      "Ġmanage": 2794,
      "ocus": 2795,
      "alf": 2796,
      "Ġappropri": 2797,
      "Ġpositions": 2798,
      "ForeignExchange": 2799,
      "uctu": 2800,
      "itative": 2801,
      "Ġinternational": 2802,
      "ĠAr": 2803,
      "Ġherein": 2804,
      "March": 2805,
      "Ġ=": 2806,
      "Ġentered": 2807,
      "Ġpast": 2808,
      "Ġcheck": 2809,
      "Ġelectric": 2810,
      "acc": 2811,
      "Ġdispos": 2812,
      "Ġdecreased": 2813,
      "Ġoperate": 2814,
      "Ġget": 2815,
      "ĠX": 2816,
      "Ġcapacity": 2817,
      "Ġgovern": 2818,
      "servable": 2819,
      "by": 2820,
      "uration": 2821,
      "Ġhel": 2822,
      "ease": 2823,
      "Ġfour": 2824,
      "Ġcollateral": 2825,
      "Ġmortgage": 2826,
      "EL": 2827,
      "Ġsepar": 2828,
      "Ġear": 2829,
      "Ġvolat": 2830,
      "92": 2831,
      "122": 2832,
      "Ġworld": 2833,
      "Ġcounter": 2834,
      "Ġcircum": 2835,
      "Ġ2017": 2836,
      "ĠCo": 2837,
      "Ġdescribed": 2838,
      "Ġtake": 2839,
      "fficient": 2840,
      "Ġmov": 2841,
      "Ġweighted": 2842,
      "Ġmonit": 2843,
      "Ġinstitut": 2844,
      "inion": 2845,
      "000088": 2846,
      "sh": 2847,
      "Facility": 2848,
      "Ġhedges": 2849,
      "tax": 2850,
      "iveness": 2851,
      "au": 2852,
      "educt": 2853,
      "ĠAmerica": 2854,
      "looking": 2855,
      "Ġapproach": 2856,
      "Ġmember": 2857,
      "ĠEurope": 2858,
      "95": 2859,
      "MinimumMember": 2860,
      "ici": 2861,
      "olit": 2862,
      "Ġreput": 2863,
      "ĠFacility": 2864,
      "Services": 2865,
      "Ġdisclosure": 2866,
      "ART": 2867,
      "uilding": 2868,
      "ĠServices": 2869,
      "DesignatedAs": 2870,
      "Ġiniti": 2871,
      "HedgingInstru": 2872,
      "Ġimprov": 2873,
      "ulatory": 2874,
      "Residential": 2875,
      "continued": 2876,
      "ibility": 2877,
      "resents": 2878,
      "DesignatedAsHedgingInstru": 2879,
      "Ġsix": 2880,
      "Ġfunct": 2881,
      "ios": 2882,
      "Ġeff": 2883,
      "Ġsur": 2884,
      "audited": 2885,
      "Ġcause": 2886,
      "Ġretain": 2887,
      "eograp": 2888,
      "Ġguid": 2889,
      "Ġstockholders": 2890,
      "Ġhistorical": 2891,
      "Ġdiscussion": 2892,
      "Var": 2893,
      "POR": 2894,
      "Ġlarge": 2895,
      "Ġaccrued": 2896,
      "Ġunderlying": 2897,
      "Ġdetermine": 2898,
      "ource": 2899,
      "Ġconting": 2900,
      "ĠCapital": 2901,
      "evenues": 2902,
      "Ġjurisdictions": 2903,
      "Tax": 2904,
      "Ġstrategy": 2905,
      "Ġassessment": 2906,
      "BS": 2907,
      "Ġparty": 2908,
      "oldings": 2909,
      "Ġprovisions": 2910,
      "Ġjoint": 2911,
      "Restricted": 2912,
      "Employee": 2913,
      "Ġhedge": 2914,
      "Ġexerc": 2915,
      "edical": 2916,
      "Ġrules": 2917,
      "wh": 2918,
      "Ġtrust": 2919,
      "Ġconsidered": 2920,
      "Ġcompetitive": 2921,
      "Ġfocus": 2922,
      "DebtMember": 2923,
      "ĠSub": 2924,
      "co": 2925,
      "ĠOperating": 2926,
      "ĠBusiness": 2927,
      "Ġcharge": 2928,
      "Ġretail": 2929,
      "86": 2930,
      "Ġextent": 2931,
      "Ġwhile": 2932,
      "INU": 2933,
      "Ġtiming": 2934,
      "From": 2935,
      "Ġfluctu": 2936,
      "Ġdecl": 2937,
      "Ġfull": 2938,
      "Property": 2939,
      "ron": 2940,
      "uc": 2941,
      "Ġmaturity": 2942,
      "Ġdifferent": 2943,
      "Ġstart": 2944,
      "issions": 2945,
      "Ġaccept": 2946,
      "ison": 2947,
      "ises": 2948,
      "igital": 2949,
      "ts": 2950,
      "ouse": 2951,
      "Ġcircumstances": 2952,
      "thern": 2953,
      "ample": 2954,
      "pportun": 2955,
      "Guarant": 2956,
      "Ġpen": 2957,
      "Ġwithout": 2958,
      "EP": 2959,
      "Ġ28": 2960,
      "Noncontrolling": 2961,
      "IP": 2962,
      "Ġpreviously": 2963,
      "Ġcase": 2964,
      "ĠInformation": 2965,
      "ĠClass": 2966,
      "onds": 2967,
      "Paid": 2968,
      "Ġreserves": 2969,
      "ĠSh": 2970,
      "ĠMr": 2971,
      "ĠTrust": 2972,
      "including": 2973,
      "Point": 2974,
      "Ġren": 2975,
      "pted": 2976,
      "BIT": 2977,
      "Ġseek": 2978,
      "Not": 2979,
      "densed": 2980,
      "Ġoutside": 2981,
      "CA": 2982,
      "ĠEXT": 2983,
      "ITEM": 2984,
      "ĠRec": 2985,
      "ode": 2986,
      "ĠBalance": 2987,
      "Ġsatis": 2988,
      "utom": 2989,
      "Ġpar": 2990,
      "Ġearn": 2991,
      "Ġimpacted": 2992,
      "Ġrequires": 2993,
      "emic": 2994,
      "Ġcompleted": 2995,
      "outh": 2996,
      "New": 2997,
      "Ġeither": 2998,
      "Ġ0": 2999,
      "lack": 3000,
      "off": 3001,
      "Customer": 3002,
      "Ġ'": 3003,
      "ĠCONSOLIDATED": 3004,
      "ĠControl": 3005,
      "Ġtechnologies": 3006,
      "GainLoss": 3007,
      "Average": 3008,
      "DesignatedAsHedgingInstrumentMember": 3009,
      "Ġbalances": 3010,
      "Business": 3011,
      "CommonStockMember": 3012,
      "âĪĴ": 3013,
      "Ġprob": 3014,
      "See": 3015,
      "leg": 3016,
      "Ġstre": 3017,
      "Ġcommunic": 3018,
      "'ll": 3019,
      "107": 3020,
      "lease": 3021,
      "Ġproceedings": 3022,
      "Ġvariable": 3023,
      "ĠProgram": 3024,
      "Ġsuppliers": 3025,
      "Ġshareholders": 3026,
      "Ġinventory": 3027,
      "ivest": 3028,
      "alties": 3029,
      "com": 3030,
      "VID": 3031,
      "Ġpercentage": 3032,
      "Ġrange": 3033,
      "Ġproceeds": 3034,
      "Rep": 3035,
      "Ġ14": 3036,
      "Postretirement": 3037,
      "Ġmarketing": 3038,
      "âĢĿ),": 3039,
      "omest": 3040,
      "//": 3041,
      "ned": 3042,
      "Ġpred": 3043,
      "Wh": 3044,
      "00015": 3045,
      "Ġdepend": 3046,
      "Ġable": 3047,
      "ĠCommission": 3048,
      "ton": 3049,
      "ley": 3050,
      "Ġopportun": 3051,
      "Ġaccompany": 3052,
      "ellect": 3053,
      "Ġcall": 3054,
      "Ġadjustment": 3055,
      "Ġassurance": 3056,
      "://": 3057,
      "Ġbase": 3058,
      "Ġcomput": 3059,
      "ellectual": 3060,
      "000005": 3061,
      "Disclosure": 3062,
      "thers": 3063,
      "Ġevery": 3064,
      "den": 3065,
      "te": 3066,
      "inations": 3067,
      "Ġmust": 3068,
      "Ġclients": 3069,
      "ĠSU": 3070,
      "Account": 3071,
      "Ġdiff": 3072,
      "ault": 3073,
      "0000831": 3074,
      "Expense": 3075,
      "Ġclassified": 3076,
      "Ġauthorized": 3077,
      "ĠCurrent": 3078,
      "olitical": 3079,
      "ivity": 3080,
      "ĠGlobal": 3081,
      "Ġread": 3082,
      "ms": 3083,
      "----": 3084,
      "Ġve": 3085,
      "Ġaccompanying": 3086,
      "RetainedEarnings": 3087,
      "Ġquality": 3088,
      "Ġprovision": 3089,
      "Ent": 3090,
      "Ġexecutive": 3091,
      "CO": 3092,
      "oles": 3093,
      "Ġstrategic": 3094,
      "357": 3095,
      "Ġoperational": 3096,
      "Ġappropriate": 3097,
      "Ġ1934": 3098,
      "centr": 3099,
      "Ġdirectors": 3100,
      "Bank": 3101,
      "RetainedEarningsMember": 3102,
      "Ġ2016": 3103,
      "gag": 3104,
      "ull": 3105,
      "ĠCourt": 3106,
      "Ġexceed": 3107,
      "Ġtarg": 3108,
      "olo": 3109,
      "cluding": 3110,
      "ĠCompensation": 3111,
      "Ġorig": 3112,
      "Ġimpacts": 3113,
      "ĠFirm": 3114,
      "Derivative": 3115,
      "designated": 3116,
      "ĠAll": 3117,
      "ĠÂł": 3118,
      "Ġstatement": 3119,
      "Change": 3120,
      "bs": 3121,
      "ĠData": 3122,
      "Ġfailure": 3123,
      "az": 3124,
      "Unsecured": 3125,
      "entures": 3126,
      "ĠVice": 3127,
      "man": 3128,
      "omestic": 3129,
      "ttp": 3130,
      "Ġrenew": 3131,
      "ĠFr": 3132,
      "Ġgranted": 3133,
      "UL": 3134,
      "Ġapproved": 3135,
      "Ġmaterials": 3136,
      "ĠApp": 3137,
      "Ġ11": 3138,
      "Ġpartners": 3139,
      "lows": 3140,
      "Ġpossible": 3141,
      "ĠNIGHT": 3142,
      "yn": 3143,
      "Ġsheet": 3144,
      "Ġvolatility": 3145,
      "ĠCommittee": 3146,
      "ĠOr": 3147,
      "OtherMember": 3148,
      "inance": 3149,
      "gress": 3150,
      "Americ": 3151,
      "enants": 3152,
      "Ġeffects": 3153,
      "ntil": 3154,
      "Ġrent": 3155,
      "Ġestablished": 3156,
      "Ġrelationships": 3157,
      "BR": 3158,
      "Ġpractices": 3159,
      "An": 3160,
      "spect": 3161,
      "ently": 3162,
      "104": 3163,
      "Ġreports": 3164,
      "exc": 3165,
      "Ġsince": 3166,
      "Ġconsum": 3167,
      "rease": 3168,
      "ĠAC": 3169,
      "Ġharm": 3170,
      "Ġrecovery": 3171,
      "Accounts": 3172,
      "Ġunable": 3173,
      "Ġwant": 3174,
      "Ġvolume": 3175,
      "Ġcannot": 3176,
      "AdjustmentMember": 3177,
      "cription": 3178,
      "izations": 3179,
      "Ġfirm": 3180,
      "ILL": 3181,
      "eem": 3182,
      "Ġongoing": 3183,
      "Ġreduction": 3184,
      "Ġsummar": 3185,
      "eople": 3186,
      "ĠCan": 3187,
      "incorporated": 3188,
      "ulative": 3189,
      "Ġaffili": 3190,
      "ĠAdditionally": 3191,
      "Ġenh": 3192,
      "Ġfunding": 3193,
      "bo": 3194,
      "ĠCOM": 3195,
      "Ġunf": 3196,
      "Ġexample": 3197,
      "Ġlikely": 3198,
      "Ġconstruction": 3199,
      "Ġchall": 3200,
      "ourse": 3201,
      "HER": 3202,
      "Ġair": 3203,
      "85": 3204,
      "echniqu": 3205,
      "Ġrestrictions": 3206,
      "Ġgot": 3207,
      "Ġmin": 3208,
      "Ġway": 3209,
      "incipal": 3210,
      "Ġsuccessful": 3211,
      "Ġline": 3212,
      "Ġ(\"": 3213,
      "igned": 3214,
      "Nondesignated": 3215,
      "Amount": 3216,
      "Ġdays": 3217,
      "Ġnext": 3218,
      "Ġindependent": 3219,
      "Policy": 3220,
      "Ġcard": 3221,
      "NondesignatedMember": 3222,
      "00000": 3223,
      "Ġdepreciation": 3224,
      "iple": 3225,
      "ĠNon": 3226,
      "Gross": 3227,
      "alif": 3228,
      "Ġnecessary": 3229,
      "Ġey": 3230,
      "Variable": 3231,
      "aliforn": 3232,
      "PL": 3233,
      "Ġdev": 3234,
      "alifornia": 3235,
      "208": 3236,
      "be": 3237,
      "Ġmonitor": 3238,
      "Ġstore": 3239,
      "June": 3240,
      "ORM": 3241,
      "83": 3242,
      "Ġunsecured": 3243,
      "ĠLevel": 3244,
      "Ġincreasing": 3245,
      "Ġdisclosures": 3246,
      "Ġeffectiveness": 3247,
      "Ġproviders": 3248,
      "CapitalMember": 3249,
      "OB": 3250,
      "Preferred": 3251,
      "ĠCar": 3252,
      "Ġratio": 3253,
      "Car": 3254,
      "outhern": 3255,
      "her": 3256,
      "ĠQuarter": 3257,
      "thing": 3258,
      "Ġintellectual": 3259,
      "Ġhelp": 3260,
      "Ġnoncontrolling": 3261,
      "Backed": 3262,
      "nov": 3263,
      "ĠRef": 3264,
      "Ġdifficult": 3265,
      "Ġsmall": 3266,
      "Ġcritical": 3267,
      "Out": 3268,
      "ĠIncentive": 3269,
      "Ġsignificantly": 3270,
      "ĠInt": 3271,
      "Ġthings": 3272,
      "Ġfinance": 3273,
      "evelopment": 3274,
      "000076": 3275,
      "FairValueDisclosure": 3276,
      "att": 3277,
      "ĠGAAP": 3278,
      "Ġfuel": 3279,
      "aMember": 3280,
      "Ġnegatively": 3281,
      "ero": 3282,
      "InterestMember": 3283,
      "anced": 3284,
      "vertible": 3285,
      "iffs": 3286,
      "Ġuntil": 3287,
      "Ġpurchased": 3288,
      "FairValueDisclosureMember": 3289,
      "Ġpaper": 3290,
      "160": 3291,
      "ĠMarket": 3292,
      "Ġdesigned": 3293,
      "acks": 3294,
      "ĠInterest": 3295,
      "IM": 3296,
      "Ġflo": 3297,
      "Ġneeds": 3298,
      "Ġinvestig": 3299,
      "Ġhear": 3300,
      "February": 3301,
      "ï¬": 3302,
      "Ġ18": 3303,
      "http": 3304,
      "reat": 3305,
      "Ġseveral": 3306,
      "tribution": 3307,
      "TS": 3308,
      "Ġgreater": 3309,
      "Valuation": 3310,
      "Ġdirectly": 3311,
      "etary": 3312,
      "Ġimport": 3313,
      "Ġvehic": 3314,
      "Ġexecut": 3315,
      "Ġprotect": 3316,
      "Ġprotection": 3317,
      "Ġthink": 3318,
      "PaidIn": 3319,
      "AdditionalPaidIn": 3320,
      "AdditionalPaidInCapitalMember": 3321,
      "Ġaction": 3322,
      "Ġwalk": 3323,
      "ator": 3324,
      "Report": 3325,
      "ĠPower": 3326,
      "iscount": 3327,
      "Ġcompetit": 3328,
      "pro": 3329,
      "Ġreasonably": 3330,
      "Ġquarterly": 3331,
      "Ġupd": 3332,
      "orage": 3333,
      "Ġtrend": 3334,
      "ane": 3335,
      "Ġothers": 3336,
      "losses": 3337,
      "Ġmer": 3338,
      "Ġaway": 3339,
      "akes": 3340,
      "Ġimm": 3341,
      "Ġdetail": 3342,
      "land": 3343,
      "Ġreturns": 3344,
      "Ġefforts": 3345,
      "asb": 3346,
      "Financing": 3347,
      "Ġaltern": 3348,
      "Ġrealized": 3349,
      "fe": 3350,
      "RA": 3351,
      "Ġminimum": 3352,
      "Receivables": 3353,
      "ifications": 3354,
      "ĠÂłĠÂł": 3355,
      "âĢĿ).": 3356,
      "ĠRate": 3357,
      "87": 3358,
      "enced": 3359,
      "Ġput": 3360,
      "pplemental": 3361,
      "Ġcateg": 3362,
      "ument": 3363,
      "Ġhedging": 3364,
      "ognized": 3365,
      "Ġprimary": 3366,
      "000100": 3367,
      "ACK": 3368,
      "care": 3369,
      "OtherPostretirement": 3370,
      "Ġpass": 3371,
      "Ġdesignated": 3372,
      "echnology": 3373,
      "anch": 3374,
      "endment": 3375,
      "Ġchain": 3376,
      "During": 3377,
      "Ġpost": 3378,
      "106": 3379,
      "Ġ16": 3380,
      "Ġreceive": 3381,
      "Ġinvolv": 3382,
      "redits": 3383,
      "Ġprom": 3384,
      "Ġforecast": 3385,
      "Ġ29": 3386,
      "Less": 3387,
      "Direct": 3388,
      "Ġsubsidiary": 3389,
      "97": 3390,
      "ention": 3391,
      "force": 3392,
      "Group": 3393,
      "Ġaddress": 3394,
      "Ġconc": 3395,
      "ering": 3396,
      "Ġga": 3397,
      "ĠAny": 3398,
      "ĠTo": 3399,
      "Units": 3400,
      "aster": 3401,
      "Ġguidance": 3402,
      "ework": 3403,
      "Ġdivers": 3404,
      "uke": 3405,
      "ĠFile": 3406,
      "gs": 3407,
      "Ġdiscussed": 3408,
      "Ġden": 3409,
      "Ġplant": 3410,
      "amework": 3411,
      "Ġdeposits": 3412,
      "ĠResults": 3413,
      "Ġregistered": 3414,
      "Ġtransfer": 3415,
      "Ġ($": 3416,
      "Ġroom": 3417,
      "ĠSH": 3418,
      "2017": 3419,
      "penses": 3420,
      "Ġspecial": 3421,
      "Ġreflected": 3422,
      "Commodity": 3423,
      "umulative": 3424,
      "ingle": 3425,
      "Ġpropos": 3426,
      "Ġlarg": 3427,
      "NOTES": 3428,
      "mb": 3429,
      "125": 3430,
      "INUED": 3431,
      "Ġcomponent": 3432,
      "elling": 3433,
      "000104": 3434,
      "average": 3435,
      "Ġanalysis": 3436,
      "PA": 3437,
      "Series": 3438,
      "Ġaccumulated": 3439,
      "ĠCH": 3440,
      "Ġcomplex": 3441,
      "Ġprocesses": 3442,
      "aring": 3443,
      "Ġsubstantial": 3444,
      "OW": 3445,
      "ĠAnal": 3446,
      "inary": 3447,
      "ody": 3448,
      "272": 3449,
      "ĠFact": 3450,
      "olution": 3451,
      "Ġemerg": 3452,
      "Ġprojects": 3453,
      "Related": 3454,
      "fasb": 3455,
      "ForeignExchangeContractMember": 3456,
      "ĠBut": 3457,
      "Ġoverall": 3458,
      "ĠThat": 3459,
      "QU": 3460,
      "EM": 3461,
      "cquisition": 3462,
      "Ġownership": 3463,
      "Or": 3464,
      "OtherPostretirementBenefit": 3465,
      "Ġplus": 3466,
      "Ġapproval": 3467,
      "Ġreconc": 3468,
      "000139": 3469,
      "FacilityMember": 3470,
      "ipp": 3471,
      "ĠDisc": 3472,
      "Ġinvestors": 3473,
      "Ġfre": 3474,
      "Ġinfrastructure": 3475,
      "Ġmainten": 3476,
      "ĠCL": 3477,
      "organ": 3478,
      "Ġaccounted": 3479,
      "Ġfinal": 3480,
      "Ġbecome": 3481,
      "Ġunrealized": 3482,
      "ĠUnder": 3483,
      "Ġreclass": 3484,
      "Ġmaintenance": 3485,
      "Ġspecified": 3486,
      "na": 3487,
      "250": 3488,
      "ĠOP": 3489,
      "ousand": 3490,
      "Ġlist": 3491,
      "OtherPostretirementBenefitPlansDefinedBenefitMember": 3492,
      "ĠCost": 3493,
      "ĠTerm": 3494,
      "Ġsafety": 3495,
      "SUs": 3496,
      "Ġlast": 3497,
      "0000831001": 3498,
      "91": 3499,
      "Ġwind": 3500,
      "FR": 3501,
      "Ġpenalties": 3502,
      "Ġcomply": 3503,
      "ominated": 3504,
      "Life": 3505,
      "Ġsit": 3506,
      "Ġchalleng": 3507,
      "Revolving": 3508,
      "81": 3509,
      "Ġpresents": 3510,
      "Ġmean": 3511,
      "enty": 3512,
      "inter": 3513,
      "Ġstatut": 3514,
      "EX": 3515,
      "ights": 3516,
      "Ġrespective": 3517,
      "ĠCondensed": 3518,
      "0000004904": 3519,
      "emn": 3520,
      "Ġmeasurement": 3521,
      "Ġreputation": 3522,
      "Ġanticipated": 3523,
      "Ġresearch": 3524,
      "lied": 3525,
      "Ġlabor": 3526,
      "use": 3527,
      "Swap": 3528,
      "Ġamortized": 3529,
      "Imp": 3530,
      "Ġmeasured": 3531,
      "bur": 3532,
      "reg": 3533,
      "ave": 3534,
      "Ġwater": 3535,
      "ven": 3536,
      "ĠEBIT": 3537,
      "Ġpoints": 3538,
      "Ġagencies": 3539,
      "Ġinitiatives": 3540,
      "oot": 3541,
      "ĠAdjust": 3542,
      "Ġday": 3543,
      "Ġprodu": 3544,
      "Performance": 3545,
      "Ġsatisf": 3546,
      "DefinedBenefitPlan": 3547,
      "essional": 3548,
      "Ġund": 3549,
      "Guaranteed": 3550,
      "Ġprevent": 3551,
      "ternal": 3552,
      "Ġmaturities": 3553,
      "ral": 3554,
      "Ġbroad": 3555,
      "Ġgoing": 3556,
      "net": 3557,
      "ool": 3558,
      "94": 3559,
      "paid": 3560,
      "FundsMember": 3561,
      "Ġ24": 3562,
      "0000092": 3563,
      "NoncontrollingInterestMember": 3564,
      "Ġowned": 3565,
      "portation": 3566,
      "ĠDis": 3567,
      "Ġcontinued": 3568,
      "kr": 3569,
      "Ġexc": 3570,
      "SE": 3571,
      "unt": 3572,
      "ĠRegistrant": 3573,
      "Ġtreat": 3574,
      "All": 3575,
      "Based": 3576,
      "Ġcoverage": 3577,
      "Ġnature": 3578,
      "lived": 3579,
      "Ġcourt": 3580,
      "Ġprivate": 3581,
      "Ġavailability": 3582,
      "eful": 3583,
      "exas": 3584,
      "Ġpeople": 3585,
      "\")": 3586,
      "consolidated": 3587,
      "ĠYear": 3588,
      "iled": 3589,
      "Ġrun": 3590,
      "ĠMat": 3591,
      "TR": 3592,
      "Ġadequ": 3593,
      "rop": 3594,
      "ParentMember": 3595,
      "Ġofferings": 3596,
      "ĠHealth": 3597,
      "Ġ27": 3598,
      "Ġsust": 3599,
      "ĠFactors": 3600,
      "Ġhome": 3601,
      "Ġturns": 3602,
      "Ġlegis": 3603,
      "Ġforth": 3604,
      "oted": 3605,
      "asic": 3606,
      "ker": 3607,
      "Ġworking": 3608,
      "Ġequal": 3609,
      "ARD": 3610,
      "Ġjudgment": 3611,
      "wide": 3612,
      "ĠDuring": 3613,
      "224": 3614,
      "Ġrepresents": 3615,
      "ĠDef": 3616,
      "nel": 3617,
      "Effect": 3618,
      "Ġstill": 3619,
      "though": 3620,
      "ealth": 3621,
      "Ġfluctuations": 3622,
      "ĠAS": 3623,
      "Ġ2015": 3624,
      "olve": 3625,
      "icate": 3626,
      "Ġcases": 3627,
      "Su": 3628,
      "ĠAnalysis": 3629,
      "Ġfiler": 3630,
      "arb": 3631,
      "150": 3632,
      "Ġcov": 3633,
      "oodwill": 3634,
      "ĠCommon": 3635,
      "000106": 3636,
      "Ġnegative": 3637,
      "Ġentity": 3638,
      "Ġalleg": 3639,
      "duk": 3640,
      "eak": 3641,
      "Amortization": 3642,
      "PART": 3643,
      "ino": 3644,
      "7476": 3645,
      "Ġbu": 3646,
      "7774": 3647,
      "0001137774": 3648,
      "Ġsheets": 3649,
      "eographic": 3650,
      "114": 3651,
      "Ġinvesting": 3652,
      "ĠOh": 3653,
      "ĠZ": 3654,
      "ams": 3655,
      "Ġrestructuring": 3656,
      "Ġtypically": 3657,
      "Ġfavorable": 3658,
      "wenty": 3659,
      "UM": 3660,
      "Ġpersonal": 3661,
      "ITIES": 3662,
      "375": 3663,
      "Estate": 3664,
      "General": 3665,
      "Ġsom": 3666,
      "Ġevaluating": 3667,
      "Ġissues": 3668,
      "ĠHoldings": 3669,
      "ĠInst": 3670,
      "ft": 3671,
      "International": 3672,
      "Ġcompetitors": 3673,
      "No": 3674,
      "sue": 3675,
      "esMember": 3676,
      "ott": 3677,
      "136": 3678,
      "IB": 3679,
      "Ġtransition": 3680,
      "Ġ25": 3681,
      "Ġswaps": 3682,
      "UD": 3683,
      "Ġsources": 3684,
      "ĠDep": 3685,
      "Ġrepurchases": 3686,
      "ĠCorporate": 3687,
      "Accrued": 3688,
      "Ġmembers": 3689,
      "Ġ@": 3690,
      "ĠGr": 3691,
      "Ġofficers": 3692,
      "Policyholder": 3693,
      "xy": 3694,
      "ished": 3695,
      "iring": 3696,
      "BRL": 3697,
      "ssu": 3698,
      "Ġmatter": 3699,
      "SeniorNotesDue": 3700,
      "Ġinflation": 3701,
      "ĠCOVID": 3702,
      "Ġ...": 3703,
      "Ġdiluted": 3704,
      "Measurement": 3705,
      "Ġopportunities": 3706,
      "Ġexcluding": 3707,
      "RealEstate": 3708,
      "uman": 3709,
      "Ġcontinuing": 3710,
      "Ġpand": 3711,
      "Ġrelev": 3712,
      "'ve": 3713,
      "Ġsingle": 3714,
      "enter": 3715,
      "00000729": 3716,
      "oh": 3717,
      "izing": 3718,
      "0001109": 3719,
      "0001109357": 3720,
      "anging": 3721,
      "Ġexpectations": 3722,
      "Ġratings": 3723,
      "Ġpreferred": 3724,
      "Ġuncertainties": 3725,
      "ĠInternational": 3726,
      "Ġauthorities": 3727,
      "ĠRet": 3728,
      "AND": 3729,
      "Ġyield": 3730,
      "Ġplace": 3731,
      "Ġeven": 3732,
      "Ġpurchases": 3733,
      "Ġsl": 3734,
      "arrant": 3735,
      "Ġreduced": 3736,
      "Ġselling": 3737,
      "Ġult": 3738,
      "InvestmentsMember": 3739,
      "ĠPh": 3740,
      "Ġvariety": 3741,
      "ĠHowever": 3742,
      "Ġclo": 3743,
      "Includ": 3744,
      "lowance": 3745,
      "Ġcaus": 3746,
      "ting": 3747,
      "ÂłÂłÂłÂłÂłÂłÂłÂłÂłÂłÂłÂłÂłÂłÂłÂł": 3748,
      "Ġrevolving": 3749,
      "Ġdollar": 3750,
      "Range": 3751,
      "Ġmajority": 3752,
      "Changes": 3753,
      "cing": 3754,
      "ĠSheets": 3755,
      "ĠNorth": 3756,
      "Ġattract": 3757,
      "ayment": 3758,
      "ĠSp": 3759,
      "Ġfully": 3760,
      "Ġpredict": 3761,
      "etr": 3762,
      "istrict": 3763,
      "App": 3764,
      "ĠUt": 3765,
      "NotesDue": 3766,
      "Ġrelevant": 3767,
      "with": 3768,
      "ivate": 3769,
      "OC": 3770,
      "Line": 3771,
      "Ġeyes": 3772,
      "Ġsufficient": 3773,
      "Ġoil": 3774,
      "ĠVIE": 3775,
      "ittle": 3776,
      "urers": 3777,
      "OP": 3778,
      "Restructuring": 3779,
      "ips": 3780,
      "Unrealized": 3781,
      "Ġland": 3782,
      "Ġcalculated": 3783,
      "Ġcredits": 3784,
      "iles": 3785,
      "000008": 3786,
      "Ġreach": 3787,
      "ĠSolutions": 3788,
      "ĠRevenue": 3789,
      "Ġtranslation": 3790,
      "Ġsubm": 3791,
      "Ġgeneration": 3792,
      "ENS": 3793,
      "Ġdelivery": 3794,
      "ĠFund": 3795,
      "Ġhighly": 3796,
      "Five": 3797,
      "ĠBr": 3798,
      "iol": 3799,
      "0000092122": 3800,
      "osp": 3801,
      "ussion": 3802,
      "Ġproviding": 3803,
      "ern": 3804,
      "illed": 3805,
      "sidiaries": 3806,
      "Ġ2027": 3807,
      "imited": 3808,
      "ystem": 3809,
      "Input": 3810,
      "ANT": 3811,
      "aining": 3812,
      "Ġcontributions": 3813,
      "eps": 3814,
      "By": 3815,
      "Ġbrand": 3816,
      "750": 3817,
      "edness": 3818,
      "lac": 3819,
      "Ġdefault": 3820,
      "PolicyholderAccount": 3821,
      "0858": 3822,
      "Ġreinsurance": 3823,
      "0000070858": 3824,
      "Ġlines": 3825,
      "Accident": 3826,
      "me": 3827,
      "ĠCanad": 3828,
      "ecurit": 3829,
      "Ġcommodity": 3830,
      "93": 3831,
      "Over": 3832,
      "Ġdecision": 3833,
      "ebtedness": 3834,
      "Ġbreach": 3835,
      "emption": 3836,
      "Elim": 3837,
      "LiabilitiesMember": 3838,
      "âĹ": 3839,
      "Ġclear": 3840,
      "ĠDiscussion": 3841,
      "Ġinstitutions": 3842,
      "ying": 3843,
      "Ġreportable": 3844,
      "Ġmot": 3845,
      "Ġdivest": 3846,
      "Ġsched": 3847,
      "GuaranteedMinimum": 3848,
      "Global": 3849,
      "str": 3850,
      "Ġopinion": 3851,
      "iving": 3852,
      "Ġsubstantially": 3853,
      "omy": 3854,
      "Ġtakes": 3855,
      "ĠCl": 3856,
      "ĠQuarterly": 3857,
      "obile": 3858,
      "Ġanother": 3859,
      "ĠEntergy": 3860,
      "Ġadopted": 3861,
      "Indicate": 3862,
      "ingly": 3863,
      "ĠEBITDA": 3864,
      "Ġareas": 3865,
      "onse": 3866,
      "invest": 3867,
      "MeasurementInput": 3868,
      "iture": 3869,
      "Depreciation": 3870,
      "North": 3871,
      "Ġtrends": 3872,
      "Ġ17": 3873,
      "recognized": 3874,
      "ĠWell": 3875,
      "action": 3876,
      "Ġfind": 3877,
      "Natural": 3878,
      "One": 3879,
      "Ġmultiple": 3880,
      "Ġdamages": 3881,
      "prise": 3882,
      "Continued": 3883,
      "ĠRelated": 3884,
      "InsuranceContract": 3885,
      "uclear": 3886,
      "ĠSuch": 3887,
      "ĠRe": 3888,
      "Exhibit": 3889,
      "Ġexpand": 3890,
      "Ġcarri": 3891,
      "Currency": 3892,
      "ĠFederal": 3893,
      "Ġuses": 3894,
      "Ġevaluate": 3895,
      "uch": 3896,
      "Hedge": 3897,
      "Regulatory": 3898,
      "ush": 3899,
      "Entity": 3900,
      "ounced": 3901,
      "Ġsk": 3902,
      "lies": 3903,
      "ifying": 3904,
      "Matur": 3905,
      "enefici": 3906,
      "Ġcarry": 3907,
      "ĠInsurance": 3908,
      "Ġfive": 3909,
      "Ġquant": 3910,
      "Ġpress": 3911,
      "ĠMAR": 3912,
      "Nine": 3913,
      "Ġcourse": 3914,
      "Ġaccelerated": 3915,
      "Ġwatch": 3916,
      "Ġtesting": 3917,
      "Ġbeliev": 3918,
      "Ġuseful": 3919,
      "bac": 3920,
      "United": 3921,
      "9617": 3922,
      "0000019617": 3923,
      "Ġlimitations": 3924,
      "ĠCOR": 3925,
      "Us": 3926,
      "ertific": 3927,
      "ery": 3928,
      "Ġevaluation": 3929,
      "Ġresulted": 3930,
      "vergy": 3931,
      "If": 3932,
      "PolicyholderAccountBalance": 3933,
      "Ġmis": 3934,
      "244": 3935,
      "GuaranteedMinimumCredit": 3936,
      "Ġsw": 3937,
      "Ġrecognize": 3938,
      "Ġtarget": 3939,
      "Ġbonds": 3940,
      "CreditMember": 3941,
      "ERS": 3942,
      "300": 3943,
      "Ġpersonnel": 3944,
      "ĠElectric": 3945,
      "met": 3946,
      "centration": 3947,
      "Ġens": 3948,
      "UC": 3949,
      "ĠFurther": 3950,
      "ares": 3951,
      "Ġrequest": 3952,
      "MS": 3953,
      "ĠMedic": 3954,
      "ĠGeneral": 3955,
      "ĠIndenture": 3956,
      "Revenues": 3957,
      "iti": 3958,
      "CreditFacilityMember": 3959,
      "InterestRateContractMember": 3960,
      "Ġtimely": 3961,
      "Ġapplication": 3962,
      "ITY": 3963,
      "Ġassumed": 3964,
      "BB": 3965,
      "erger": 3966,
      "Ġsubsequent": 3967,
      "ĠRegulation": 3968,
      "vision": 3969,
      "Ġmodels": 3970,
      "Ġcontingent": 3971,
      "Ġpremiums": 3972,
      "Thousand": 3973,
      "BackedSecuritiesMember": 3974,
      "Ġinitial": 3975,
      "Ġalong": 3976,
      "ipel": 3977,
      "With": 3978,
      "Ġcondensed": 3979,
      "Ġretirement": 3980,
      "Ġindebtedness": 3981,
      "ething": 3982,
      "156": 3983,
      "itten": 3984,
      "'d": 3985,
      "ĠDistrict": 3986,
      "IDI": 3987,
      "130": 3988,
      "Ġcompr": 3989,
      "205": 3990,
      "Ġfee": 3991,
      "327": 3992,
      "Ġdecline": 3993,
      "Ġearned": 3994,
      "ustrial": 3995,
      "ingRate": 3996,
      "ĠProduct": 3997,
      "GuaranteedMinimumCreditingRate": 3998,
      "Ġregular": 3999,
      "ConsumerPortfolioSegmentMember": 4000,
      "Ġlittle": 4001,
      "vertising": 4002,
      "ĠSales": 4003,
      "Ġtar": 4004,
      "itiesMember": 4005,
      "pected": 4006,
      "ERC": 4007,
      "Ġgenerated": 4008,
      "Ġ199": 4009,
      "Ġalternative": 4010,
      "TwoThousand": 4011,
      "Ġcomparable": 4012,
      "Ġclimate": 4013,
      "Ġwa": 4014,
      "Ġaudits": 4015,
      "imbur": 4016,
      "iling": 4017,
      "Ġ21": 4018,
      "ĠLoan": 4019,
      "igible": 4020,
      "mental": 4021,
      "Ġfourth": 4022,
      "iana": 4023,
      "2016": 4024,
      "Ġrecognition": 4025,
      "Excluding": 4026,
      "000078": 4027,
      "arkets": 4028,
      "Ġdoc": 4029,
      "Health": 4030,
      "Ġobject": 4031,
      "dr": 4032,
      "ĠPlans": 4033,
      "ICE": 4034,
      "ĠSUBS": 4035,
      "Ġsection": 4036,
      "Ġapplications": 4037,
      "Ag": 4038,
      "Ġnam": 4039,
      "Ġachiev": 4040,
      "IDIAR": 4041,
      "Ġvary": 4042,
      "Ġviol": 4043,
      "error": 4044,
      "Ġallocated": 4045,
      "ĠInternal": 4046,
      "OUS": 4047,
      "Ġstrategies": 4048,
      "ĠSUBSIDIAR": 4049,
      "ded": 4050,
      "Ġcompetition": 4051,
      "Ġintended": 4052,
      "ĠSeries": 4053,
      "well": 4054,
      "income": 4055,
      "Ġsubs": 4056,
      "ĠAb": 4057,
      "Ġmix": 4058,
      "Ġdigital": 4059,
      "Ġcovenants": 4060,
      "Ġregulation": 4061,
      "Ġmedical": 4062,
      "Ġprinciples": 4063,
      "Ġmerch": 4064,
      "Ut": 4065,
      "Ġname": 4066,
      "Ġdollars": 4067,
      "ĠComprehensive": 4068,
      "ĠDIS": 4069,
      "ersegment": 4070,
      "Ġdamage": 4071,
      "ĠRestated": 4072,
      "ĠÂ": 4073,
      "ĠON": 4074,
      "Ġresponsible": 4075,
      "olar": 4076,
      "Ġmoney": 4077,
      "Forward": 4078,
      "Ġbest": 4079,
      "154": 4080,
      ".âĢĿ": 4081,
      "ĠRep": 4082,
      "Class": 4083,
      "Option": 4084,
      "ĠCondition": 4085,
      "cash": 4086,
      "ene": 4087,
      "ops": 4088,
      "115": 4089,
      "Ġ+": 4090,
      "000087476": 4091,
      "Ġengag": 4092,
      "Ġimpro": 4093,
      "lements": 4094,
      "eneficiary": 4095,
      "ĠAI": 4096,
      "sp": 4097,
      "Ġmaking": 4098,
      "Ġrecent": 4099,
      "Ġfiling": 4100,
      "itch": 4101,
      "Ġlocated": 4102,
      "Six": 4103,
      "Ġstates": 4104,
      "ĠSUBSIDIARIES": 4105,
      "Ġlawsu": 4106,
      "eria": 4107,
      "AccidentYear": 4108,
      "Ġpartnership": 4109,
      "dison": 4110,
      "Ġactive": 4111,
      "CommercialPortfolioSegmentMember": 4112,
      "Ġbehalf": 4113,
      "Ġthreat": 4114,
      "Ġnorm": 4115,
      "Noncurrent": 4116,
      "ST": 4117,
      "acific": 4118,
      "Ġexercise": 4119,
      "ursuant": 4120,
      "Dividend": 4121,
      "idd": 4122,
      "Past": 4123,
      "Ġexternal": 4124,
      "Ġmitig": 4125,
      "ĠCONT": 4126,
      "ĠCalifornia": 4127,
      "urationInsuranceContract": 4128,
      "Ġarising": 4129,
      "Ġvery": 4130,
      "Ġinnov": 4131,
      "Ġ26": 4132,
      "Ġgoods": 4133,
      "Ġshow": 4134,
      "meren": 4135,
      "urrencies": 4136,
      "105": 4137,
      "iliation": 4138,
      "ĠWhile": 4139,
      "ffici": 4140,
      "Ġcross": 4141,
      "Ġredeem": 4142,
      "Ġtherefore": 4143,
      "olesale": 4144,
      "Shares": 4145,
      "600": 4146,
      "Ġes": 4147,
      "Ġvend": 4148,
      "Ġautom": 4149,
      "ĠSegment": 4150,
      "Gr": 4151,
      "echnique": 4152,
      "Ġstorage": 4153,
      "sale": 4154,
      "Ġpandemic": 4155,
      "ĠFR": 4156,
      "Ġwebs": 4157,
      "td": 4158,
      "Ġobservable": 4159,
      "Ġresponse": 4160,
      "Program": 4161,
      "aging": 4162,
      "ForeignPlanMember": 4163,
      "Ġselect": 4164,
      "olly": 4165,
      "Operations": 4166,
      "Allowance": 4167,
      "utical": 4168,
      "ĠEst": 4169,
      "/(": 4170,
      "%.": 4171,
      "Ġstructure": 4172,
      "roll": 4173,
      "armace": 4174,
      "Ġoffering": 4175,
      "Ġgovernmental": 4176,
      "Ġmight": 4177,
      "ĠRefer": 4178,
      "resp": 4179,
      "Ġdisruptions": 4180,
      "TC": 4181,
      "parties": 4182,
      "005": 4183,
      "Ġprivacy": 4184,
      "Ġeffectively": 4185,
      "Ġdefin": 4186,
      "ĠChina": 4187,
      "armaceutical": 4188,
      "Re": 4189,
      "Â®": 4190,
      "ĠMar": 4191,
      "Ġclosing": 4192,
      "Ġindemn": 4193,
      "idence": 4194,
      "Ġaccru": 4195,
      "ĠRegistr": 4196,
      "Ġdecisions": 4197,
      "ĠNational": 4198,
      "Ġfile": 4199,
      ")(": 4200,
      "Ġhard": 4201,
      "Ġserved": 4202,
      "Ġtransmission": 4203,
      "800": 4204,
      "ĠBlack": 4205,
      "ream": 4206,
      "iii": 4207,
      "0001326": 4208,
      "eto": 4209,
      "come": 4210,
      "There": 4211,
      "ExpenseMember": 4212,
      "Ġbook": 4213,
      "Twenty": 4214,
      "Discount": 4215,
      "ï¬ģ": 4216,
      "Ġgiven": 4217,
      "CashFlowHedgingMember": 4218,
      "400": 4219,
      "Ġaffiliates": 4220,
      "Ġprojected": 4221,
      "Ġinher": 4222,
      "FairValueFairValueDisclosureMember": 4223,
      "Ġemerging": 4224,
      "ĠEqu": 4225,
      "Ġuncertainty": 4226,
      "PastDue": 4227,
      "fc": 4228,
      "Ġbl": 4229,
      "ĠCertain": 4230,
      "idents": 4231,
      "Ġprospect": 4232,
      "ĠLiabilities": 4233,
      "Ġbuild": 4234,
      "Ġexpress": 4235,
      "Ãĥ": 4236,
      "PM": 4237,
      "NA": 4238,
      "Ġmonth": 4239,
      "aft": 4240,
      "Ġsay": 4241,
      "ĠDebt": 4242,
      "Ġfree": 4243,
      "pru": 4244,
      "ĠNot": 4245,
      "Ġprofessional": 4246,
      "Ġaward": 4247,
      "Ġsens": 4248,
      "Ġsummarizes": 4249,
      "omes": 4250,
      "Ġcalcul": 4251,
      "Lease": 4252,
      "Ġ23": 4253,
      "emark": 4254,
      "ayments": 4255,
      "Trading": 4256,
      "yl": 4257,
      "Ġprobable": 4258,
      "ĠUS": 4259,
      "Principal": 4260,
      "amily": 4261,
      "Ġconsolid": 4262,
      "Prim": 4263,
      "Ġbar": 4264,
      "Ġlonger": 4265,
      "Ġnear": 4266,
      "ĠGas": 4267,
      "6982": 4268,
      "0000886982": 4269,
      "000175": 4270,
      "imburs": 4271,
      "pecial": 4272,
      "EA": 4273,
      "Ġstrong": 4274,
      "ĠPerformance": 4275,
      "OCI": 4276,
      "Carrying": 4277,
      "KE": 4278,
      "Ġimpos": 4279,
      "Ġmanner": 4280,
      "Ġeng": 4281,
      "00018": 4282,
      "CorporateDebtSecuritiesMember": 4283,
      "Ġbelieves": 4284,
      "310": 4285,
      "2027": 4286,
      "FORM": 4287,
      "Ġincentive": 4288,
      "Ġperiodic": 4289,
      "SwapMember": 4290,
      "omb": 4291,
      "Ġwarrant": 4292,
      "Ġdeposit": 4293,
      "ĠCUT": 4294,
      "ĠShares": 4295,
      "Ġseparate": 4296,
      "ico": 4297,
      "Ġcriteria": 4298,
      "alty": 4299,
      "comp": 4300,
      "State": 4301,
      "Ġknown": 4302,
      "Ġtog": 4303,
      "writ": 4304,
      "Ġcome": 4305,
      "Dollars": 4306,
      "196": 4307,
      "Ġconsistent": 4308,
      "Ġclient": 4309,
      "135": 4310,
      "Ġprocessing": 4311,
      "EquitySecuritiesMember": 4312,
      "Ġphys": 4313,
      "Ġreserve": 4314,
      "ĠDel": 4315,
      "Ġadoption": 4316,
      "Ġtogether": 4317,
      "Ġleast": 4318,
      "Ġfound": 4319,
      "urring": 4320,
      "market": 4321,
      "etting": 4322,
      "CC": 4323,
      "II": 4324,
      ",\"": 4325,
      "116": 4326,
      "000035": 4327,
      "agn": 4328,
      "Ġdiscret": 4329,
      "118": 4330,
      "Ġcombination": 4331,
      "Ġvolumes": 4332,
      "RestrictedStock": 4333,
      "DefinedBenefitPlans": 4334,
      "PastDueMember": 4335,
      "GuaranteedMinimumCreditingRateRange": 4336,
      "ĠWhen": 4337,
      "Dec": 4338,
      "lusive": 4339,
      "cy": 4340,
      "Ġreli": 4341,
      "ĠFair": 4342,
      "Ġidentified": 4343,
      "Goodwill": 4344,
      "uro": 4345,
      "ĠTaxes": 4346,
      "Ġorders": 4347,
      "ffer": 4348,
      "day": 4349,
      "Ġsomething": 4350,
      "bligations": 4351,
      "Ġtaken": 4352,
      "Ġcontinues": 4353,
      "ĠStandard": 4354,
      "Ġallocation": 4355,
      "Ġdeduct": 4356,
      "ceeds": 4357,
      "ĠLoss": 4358,
      "0000072971": 4359,
      "Ġspread": 4360,
      "Ġholders": 4361,
      "Ġsustain": 4362,
      "ĠPublic": 4363,
      "uarial": 4364,
      "Ġtypes": 4365,
      "irgin": 4366,
      "RS": 4367,
      "gical": 4368,
      "AccumulatedDefinedBenefitPlans": 4369,
      "Ġdru": 4370,
      "Ġvesting": 4371,
      "350": 4372,
      "120": 4373,
      "Ġrelative": 4374,
      "111": 4375,
      "umm": 4376,
      "Ġtermination": 4377,
      "Ġconcer": 4378,
      "133": 4379,
      "Ġ22": 4380,
      "active": 4381,
      "Ġearly": 4382,
      "ends": 4383,
      "ĠMan": 4384,
      "Ar": 4385,
      "Ġcorresp": 4386,
      "Ġunrecognized": 4387,
      "ĠXBRL": 4388,
      "Ġtoo": 4389,
      "Ġremedi": 4390,
      "IF": 4391,
      "Technique": 4392,
      "ivities": 4393,
      "lock": 4394,
      "PreferredStockMember": 4395,
      "Ġpull": 4396,
      "Ph": 4397,
      "00016": 4398,
      "cquisitions": 4399,
      "IA": 4400,
      "Ġplac": 4401,
      "File": 4402,
      "Equipment": 4403,
      "January": 4404,
      "Ġ2028": 4405,
      "Ġelim": 4406,
      "onding": 4407,
      "ĠASU": 4408,
      "augh": 4409,
      "Ġinvolved": 4410,
      "Ġbehind": 4411,
      "Ġproposed": 4412,
      "Southern": 4413,
      "Ġbetter": 4414,
      "Intersegment": 4415,
      "istics": 4416,
      "Ġdefend": 4417,
      "00010992": 4418,
      "0001099219": 4419,
      "pm": 4420,
      "ĠAdjusted": 4421,
      "Ġprofitability": 4422,
      "etter": 4423,
      "Ġguarantees": 4424,
      "comm": 4425,
      "Ġcop": 4426,
      "740": 4427,
      "Director": 4428,
      "Ġovers": 4429,
      "eff": 4430,
      "Ġcur": 4431,
      "ĠâĪĴ": 4432,
      "Card": 4433,
      "VariableInterest": 4434,
      "Ġissue": 4435,
      "ertification": 4436,
      "Selling": 4437,
      "apan": 4438,
      "OLD": 4439,
      "ĠSo": 4440,
      "Ġoperation": 4441,
      "entially": 4442,
      "Ġcurrencies": 4443,
      "CMember": 4444,
      "Date": 4445,
      "ValuationTechnique": 4446,
      "Ġdeem": 4447,
      "Ġreflects": 4448,
      "emp": 4449,
      "Ġdevelopments": 4450,
      "Ġexam": 4451,
      "Ġannounced": 4452,
      "ĠWest": 4453,
      "ology": 4454,
      "Act": 4455,
      "Ġtoward": 4456,
      "Ġarea": 4457,
      "ĠMatters": 4458,
      "Ġdist": 4459,
      "ming": 4460,
      "ened": 4461,
      "Ġmaximum": 4462,
      "lu": 4463,
      "Unaudited": 4464,
      "Ġteam": 4465,
      "ĠUnit": 4466,
      "ude": 4467,
      "IVE": 4468,
      "Ġachieve": 4469,
      "ansas": 4470,
      "Ġsecured": 4471,
      "pret": 4472,
      "ĠReporting": 4473,
      "ASH": 4474,
      "Derivatives": 4475,
      "ening": 4476,
      "Ġhands": 4477,
      "aut": 4478,
      "Solutions": 4479,
      "Ġchar": 4480,
      "ierarch": 4481,
      "Ġstatutory": 4482,
      "ĠTexas": 4483,
      "Ġframework": 4484,
      "Estimate": 4485,
      "ĠMiss": 4486,
      "ouis": 4487,
      "aight": 4488,
      "Ġensure": 4489,
      "ww": 4490,
      "irginia": 4491,
      "Ġholding": 4492,
      "udit": 4493,
      "Ġopt": 4494,
      "isclosures": 4495,
      "egal": 4496,
      "ilit": 4497,
      "Ġ@-": 4498,
      "Public": 4499,
      "Ġ@-@": 4500,
      "ĠUnits": 4501,
      "ierarchy": 4502,
      "ĠReal": 4503,
      "Ġtreatment": 4504,
      "Ġtables": 4505,
      "Europe": 4506,
      "Ġintro": 4507,
      "Ġborrowing": 4508,
      "Ġenact": 4509,
      "145": 4510,
      "gl": 4511,
      "ordinated": 4512,
      "etters": 4513,
      "Ġeligible": 4514,
      "OfFairValueFairValueDisclosureMember": 4515,
      "EstimateOfFairValueFairValueDisclosureMember": 4516,
      "Ġcovered": 4517,
      "qual": 4518,
      "Ġorganization": 4519,
      "000105": 4520,
      "Ġke": 4521,
      "Ġreclassified": 4522,
      "see": 4523,
      "Ġpending": 4524,
      "Ġexposures": 4525,
      "189": 4526,
      "expense": 4527,
      "Ġ)": 4528,
      "Ġcounterparties": 4529,
      "Ġresidential": 4530,
      "Ġconsists": 4531,
      "company": 4532,
      "Secured": 4533,
      "ĠChange": 4534,
      "Gre": 4535,
      "Ġventure": 4536,
      "276": 4537,
      "Ġimportant": 4538,
      "ĠAssoci": 4539,
      "Ġbanking": 4540,
      "efin": 4541,
      "912": 4542,
      "126": 4543,
      "Ġten": 4544,
      "Ġfront": 4545,
      "Ġelected": 4546,
      "Ġoffice": 4547,
      "Ġdeveloped": 4548,
      "OD": 4549,
      "inical": 4550,
      "0001326160": 4551,
      "Includes": 4552,
      "der": 4553,
      "May": 4554,
      "ĠDr": 4555,
      "RevolvingCreditFacilityMember": 4556,
      "681": 4557,
      "Ġadvertising": 4558,
      "ĠOne": 4559,
      "lor": 4560,
      "ĠBe": 4561,
      "Ġdates": 4562,
      "Reclass": 4563,
      "ĠCOMP": 4564,
      "ĠWith": 4565,
      "alls": 4566,
      "lean": 4567,
      "Index": 4568,
      "Ġjudgments": 4569,
      "Ġofficer": 4570,
      "ĠDisclosures": 4571,
      "ars": 4572,
      "fit": 4573,
      "Entergy": 4574,
      "eases": 4575,
      "backed": 4576,
      "Ġlight": 4577,
      "110": 4578,
      "Ġ2014": 4579,
      "ols": 4580,
      "Retirement": 4581,
      "Ġextended": 4582,
      "Ġchann": 4583,
      "Ġinterim": 4584,
      "RiskMember": 4585,
      "hibits": 4586,
      "interest": 4587,
      "Ġcomplaint": 4588,
      "320": 4589,
      "Ġcapt": 4590,
      "Ġaccepted": 4591,
      "Ġdifferences": 4592,
      "Qu": 4593,
      "Ġeffici": 4594,
      "Ġdetermining": 4595,
      "Ġtalk": 4596,
      "GuaranteedMinimumCreditingRateRangeFrom": 4597,
      "CL": 4598,
      "itment": 4599,
      "Ġcaused": 4600,
      "ills": 4601,
      "UsMember": 4602,
      "Ġ|": 4603,
      "ĠContract": 4604,
      "Ġacquire": 4605,
      "Ġstatus": 4606,
      "Ġtransportation": 4607,
      "ICK": 4608,
      "000128": 4609,
      "Ġparticipants": 4610,
      "ELL": 4611,
      "Ġnormal": 4612,
      "ALL": 4613,
      "Adjusted": 4614,
      "123": 4615,
      "AndOther": 4616,
      "ĠFlows": 4617,
      "Ġhowever": 4618,
      "inate": 4619,
      "Amounts": 4620,
      "Ġthough": 4621,
      "Under": 4622,
      "Ġcombined": 4623,
      "opp": 4624,
      "Ġcapabilities": 4625,
      "Ġcloud": 4626,
      "Ġcomplete": 4627,
      "used": 4628,
      "ren": 4629,
      "Ġdelay": 4630,
      "enn": 4631,
      "OV": 4632,
      "asual": 4633,
      "ĠInvestment": 4634,
      "Ġcapitalized": 4635,
      "Ġchallenges": 4636,
      "Ġqualified": 4637,
      "Ġdetermination": 4638,
      "Compensation": 4639,
      "312": 4640,
      "IncMember": 4641,
      "Fiscal": 4642,
      "166": 4643,
      "atures": 4644,
      "Ġinterpret": 4645,
      "270": 4646,
      "ServicesMember": 4647,
      "Four": 4648,
      "NY": 4649,
      "share": 4650,
      "Ġemissions": 4651,
      "ĠSupplemental": 4652,
      "Ġpostretirement": 4653,
      "avings": 4654,
      "junct": 4655,
      "Concentration": 4656,
      "ableMember": 4657,
      "ks": 4658,
      "CoMember": 4659,
      "ĠCompanies": 4660,
      "ead": 4661,
      "Ġoutcome": 4662,
      "Ġvehicles": 4663,
      "Ġhealthcare": 4664,
      "Ġyet": 4665,
      "OfCreditMember": 4666,
      "Ġenfor": 4667,
      "Ġlives": 4668,
      "oti": 4669,
      "ngth": 4670,
      "Distribution": 4671,
      "Ġmom": 4672,
      "pon": 4673,
      "Ġstraight": 4674,
      "Ġidentify": 4675,
      "Ġunfavorable": 4676,
      "ble": 4677,
      "Ġ100": 4678,
      "Ġlegislation": 4679,
      "fg": 4680,
      "190": 4681,
      "Ġweather": 4682,
      "nvironment": 4683,
      "2028": 4684,
      "ĠIs": 4685,
      "Ġplay": 4686,
      "INT": 4687,
      "Time": 4688,
      "Ġparticularly": 4689,
      "inn": 4690,
      "Ġbuilding": 4691,
      "102": 4692,
      "Ġinvested": 4693,
      "Ġapply": 4694,
      "Ġredemption": 4695,
      "ĠJoh": 4696,
      "head": 4697,
      "pose": 4698,
      "Asia": 4699,
      "Ġboard": 4700,
      "Ġimprovements": 4701,
      "169": 4702,
      "ĠChanges": 4703,
      "Ġindustrial": 4704,
      "20027": 4705,
      "0000820027": 4706,
      "ape": 4707,
      "Regulated": 4708,
      "AGE": 4709,
      "Ġutility": 4710,
      "aps": 4711,
      "ecause": 4712,
      "Ġquoted": 4713,
      "Ġthereto": 4714,
      "ism": 4715,
      "Ġdistributions": 4716,
      "ĠLong": 4717,
      "Ġwritten": 4718,
      "ĠActivities": 4719,
      "Ġindicated": 4720,
      "olum": 4721,
      "First": 4722,
      "119": 4723,
      "PP": 4724,
      "Ġpartner": 4725,
      "Ġexperienced": 4726,
      "103": 4727,
      "kkr": 4728,
      "aration": 4729,
      "prietary": 4730,
      "ĠEarnings": 4731,
      "Ġmetric": 4732,
      "Ġdisclosed": 4733,
      "Ref": 4734,
      "Ġtw": 4735,
      "eason": 4736,
      "Ġdomestic": 4737,
      "170": 4738,
      "Ġsuper": 4739,
      "Ġimprove": 4740,
      "Ġreimburs": 4741,
      "irl": 4742,
      "anes": 4743,
      "ĠUtility": 4744,
      "ĠCAR": 4745,
      "0000036": 4746,
      "Ġstud": 4747,
      "aa": 4748,
      "arters": 4749,
      "llino": 4750,
      "CR": 4751,
      "Ġwebsite": 4752,
      "Ġelectron": 4753,
      "echnologies": 4754,
      "Ġhierarchy": 4755,
      "sre": 4756,
      "Ġtariffs": 4757,
      "Home": 4758,
      "house": 4759,
      "version": 4760,
      "PR": 4761,
      "ĠMAN": 4762,
      "Ġdeemed": 4763,
      "llinois": 4764,
      "ocial": 4765,
      "vailable": 4766,
      "oice": 4767,
      "Ġfoot": 4768,
      "Ġengine": 4769,
      "yond": 4770,
      "ĠEuropean": 4771,
      "Ġclose": 4772,
      "edded": 4773,
      "down": 4774,
      "Ġlicense": 4775,
      "Ġperformed": 4776,
      "ĠStr": 4777,
      "inationMember": 4778,
      "Intangible": 4779,
      "RestrictedStockUnits": 4780,
      "132": 4781,
      "108": 4782,
      "ĠCode": 4783,
      "Ġpotentially": 4784,
      "Ġfire": 4785,
      "Ġlend": 4786,
      "Ġwhole": 4787,
      "Ġleverage": 4788,
      "Ġagency": 4789,
      "Ġsatisfy": 4790,
      "Ġwalks": 4791,
      "back": 4792,
      "Certain": 4793,
      "000169": 4794,
      "Ġsuccessfully": 4795,
      "Ġmitigate": 4796,
      "Ġcomprised": 4797,
      "NaturalGas": 4798,
      "ĠFL": 4799,
      "Sale": 4800,
      "347": 4801,
      "Than": 4802,
      "180": 4803,
      "Primary": 4804,
      "Industrial": 4805,
      "itled": 4806,
      "CONTINUED": 4807,
      "Ġlending": 4808,
      "Ġcontent": 4809,
      "($": 4810,
      "Ġtype": 4811,
      "avel": 4812,
      "340": 4813,
      "sum": 4814,
      "Ġconsumers": 4815,
      "Ġlicenses": 4816,
      "Ġaccur": 4817,
      "CommodityContractMember": 4818,
      "operating": 4819,
      "Ġsource": 4820,
      "ĠImp": 4821,
      "ĠAmended": 4822,
      "LoanMember": 4823,
      "Ġcompete": 4824,
      "112": 4825,
      "ĠCanada": 4826,
      "Ġexcluded": 4827,
      "iddle": 4828,
      "rupt": 4829,
      "three": 4830,
      "aware": 4831,
      "ConcentrationRiskMember": 4832,
      "eah": 4833,
      "AccumulatedGainLoss": 4834,
      "Ġsect": 4835,
      "Ġmanaged": 4836,
      "tection": 4837,
      "writing": 4838,
      "Ġstrength": 4839,
      "Ġcountry": 4840,
      "Ġindicate": 4841,
      "ually": 4842,
      "Ġordinary": 4843,
      "self": 4844,
      "Ġbeyond": 4845,
      "inning": 4846,
      "ĠThen": 4847,
      "yMember": 4848,
      "Ġappear": 4849,
      "cement": 4850,
      "Ġsummary": 4851,
      "ift": 4852,
      "Ġslow": 4853,
      "ĠTotal": 4854,
      "Ġtaxable": 4855,
      "ĠPartnership": 4856,
      "00017": 4857,
      "alent": 4858,
      "aff": 4859,
      "Ġpolitical": 4860,
      "MAN": 4861,
      "Ġcontained": 4862,
      "Ġpatent": 4863,
      "Ġcou": 4864,
      "lict": 4865,
      "ĠMA": 4866,
      "ously": 4867,
      "Liability": 4868,
      "Ġarrangement": 4869,
      "ĠAg": 4870,
      "Ġpers": 4871,
      "Ġdeclared": 4872,
      "Ġstores": 4873,
      "Ġcenters": 4874,
      "Ġmuch": 4875,
      "cl": 4876,
      "000155": 4877,
      "Ġwindow": 4878,
      "Translation": 4879,
      "cluded": 4880,
      "Ġtechn": 4881,
      "enar": 4882,
      "LoansMember": 4883,
      "ĠCORPOR": 4884,
      "ĠAward": 4885,
      "rate": 4886,
      "Ġra": 4887,
      "Ġbanks": 4888,
      "actions": 4889,
      "Ġlooking": 4890,
      "FF": 4891,
      "0000936": 4892,
      "ves": 4893,
      "Ġindirect": 4894,
      "Ġsy": 4895,
      "405": 4896,
      "5272": 4897,
      "Ġimmedi": 4898,
      "oting": 4899,
      "0000005272": 4900,
      "ra": 4901,
      "LongTerm": 4902,
      "ĠRestricted": 4903,
      "iration": 4904,
      "lant": 4905,
      "Ġcorresponding": 4906,
      "iting": 4907,
      "Ġgeographic": 4908,
      "acter": 4909,
      "ides": 4910,
      "uity": 4911,
      "Ġdependent": 4912,
      "Ġbroker": 4913,
      "Ġdeal": 4914,
      "Ġcomes": 4915,
      "aged": 4916,
      "Ġspace": 4917,
      "ging": 4918,
      "ats": 4919,
      "asualty": 4920,
      "Executive": 4921,
      "ĠOver": 4922,
      "Ġold": 4923,
      "empor": 4924,
      "Retail": 4925,
      "econ": 4926,
      "TION": 4927,
      "000094": 4928,
      "ystems": 4929,
      "Coll": 4930,
      "RY": 4931,
      "260": 4932,
      "yalty": 4933,
      "ĠES": 4934,
      "Days": 4935,
      "Ġfeet": 4936,
      "Ġrely": 4937,
      "Ġthroughout": 4938,
      "owned": 4939,
      "Ġnever": 4940,
      "Duke": 4941,
      "Ġcounterparty": 4942,
      "ĠSO": 4943,
      "Ġreconciliation": 4944,
      "idge": 4945,
      "Ġz": 4946,
      "113": 4947,
      "Ġstand": 4948,
      "anged": 4949,
      "PowerMember": 4950,
      "ĠInvestments": 4951,
      "Ġinvestigations": 4952,
      "--------": 4953,
      "Ġside": 4954,
      "Ġview": 4955,
      "Ġdeg": 4956,
      "TA": 4957,
      "Period": 4958,
      "Ġspending": 4959,
      "after": 4960,
      "Finance": 4961,
      "Ġcreate": 4962,
      "unic": 4963,
      "Ġ2029": 4964,
      "Ġtimes": 4965,
      "117": 4966,
      "URITIES": 4967,
      "ole": 4968,
      "Ġformer": 4969,
      "Ġunconsolidated": 4970,
      "Ġventures": 4971,
      "escription": 4972,
      "Ġla": 4973,
      "echan": 4974,
      "month": 4975,
      "OME": 4976,
      "172": 4977,
      "Depos": 4978,
      "ctions": 4979,
      "icial": 4980,
      "Ġreplac": 4981,
      "illing": 4982,
      "267": 4983,
      "Ġnumer": 4984,
      "ĠTH": 4985,
      "place": 4986,
      "ĠDo": 4987,
      "Ġpack": 4988,
      "625": 4989,
      "econd": 4990,
      "ones": 4991,
      "Number": 4992,
      "oth": 4993,
      "Ġhapp": 4994,
      "ilutive": 4995,
      "Ġresolution": 4996,
      "Ġoriginal": 4997,
      "Ġrepurchased": 4998,
      "This": 4999,
      "nj": 5000,
      "Ġcommitted": 5001,
      "Agreement": 5002,
      "ĠJO": 5003,
      "000163": 5004,
      "Ġleaders": 5005,
      "Ġadequate": 5006,
      "Ġdevices": 5007,
      "ipeline": 5008,
      "127": 5009,
      "Ġfew": 5010,
      "ington": 5011,
      "PORT": 5012,
      "ESS": 5013,
      "Ġstarts": 5014,
      "ibles": 5015,
      "Ġobtained": 5016,
      "Ġanaly": 5017,
      "Ġstruct": 5018,
      "Ġoften": 5019,
      "itle": 5020,
      "Ġactuarial": 5021,
      "Ġentire": 5022,
      "Ġdiscounted": 5023,
      "Ġunless": 5024,
      "Ġmargins": 5025,
      "PowerCompanyMember": 5026,
      "ĠAudit": 5027,
      "Ġlocations": 5028,
      "ĠAssociation": 5029,
      "âĺĴ": 5030,
      "263": 5031,
      "2031": 5032,
      "Ġultimate": 5033,
      "293": 5034,
      "Ġapplied": 5035,
      "Ġgenerate": 5036,
      "EY": 5037,
      "Ġsign": 5038,
      "quare": 5039,
      ".\"": 5040,
      "Ġexpans": 5041,
      "Ġjurisdiction": 5042,
      "201": 5043,
      "TreasuryStock": 5044,
      "Ġpulls": 5045,
      "Reclassification": 5046,
      "let": 5047,
      "NonUsMember": 5048,
      "ĠState": 5049,
      "Ġletters": 5050,
      "SEC": 5051,
      "275": 5052,
      "IntersegmentElim": 5053,
      "Ġsteps": 5054,
      "uthorized": 5055,
      "148": 5056,
      "Ġgoals": 5057,
      "Ġincidents": 5058,
      "Ġtop": 5059,
      "2015": 5060,
      "Yes": 5061,
      "Ġcanc": 5062,
      "Issu": 5063,
      "Ġdiscontinued": 5064,
      "ĠAmendment": 5065,
      "Greater": 5066,
      "time": 5067,
      "Ġholds": 5068,
      "Ġrelate": 5069,
      "Ġvendors": 5070,
      "CashFlowHedge": 5071,
      "itr": 5072,
      "greements": 5073,
      "Ġconflict": 5074,
      "Ġsupplement": 5075,
      "quidity": 5076,
      "âĹı": 5077,
      "artment": 5078,
      "Ġgoes": 5079,
      "Ġfraud": 5080,
      "atast": 5081,
      "ertificate": 5082,
      "Ġtreasury": 5083,
      "ĠBenefits": 5084,
      "ecuritization": 5085,
      "CommonMember": 5086,
      "Ġproprietary": 5087,
      "Acquisition": 5088,
      "SalesMember": 5089,
      "Ġincremental": 5090,
      "ĠJapan": 5091,
      "Ġcarried": 5092,
      "Ġlawsuits": 5093,
      "395": 5094,
      "AV": 5095,
      "Add": 5096,
      "jnj": 5097,
      "Ġclinical": 5098,
      "389": 5099,
      "ĠAL": 5100,
      "149": 5101,
      "ĠRevenues": 5102,
      "airs": 5103,
      "ĠIII": 5104,
      "Ġnetworks": 5105,
      "ĠAlthough": 5106,
      "economic": 5107,
      "Ġmakes": 5108,
      "Ġcharacter": 5109,
      "Ġcommunications": 5110,
      "Ġhot": 5111,
      "ivalent": 5112,
      "more": 5113,
      "Dividends": 5114,
      "igence": 5115,
      "Ġtrial": 5116,
      "Ġguarantee": 5117,
      "Ġgive": 5118,
      "ationMember": 5119,
      "Ġlicens": 5120,
      "ĠTreasury": 5121,
      "rument": 5122,
      "hood": 5123,
      "ĠDoc": 5124,
      "Ġperforming": 5125,
      "aws": 5126,
      "Ġcollabor": 5127,
      "aur": 5128,
      "rg": 5129,
      "Ġtell": 5130,
      "fers": 5131,
      "157": 5132,
      "TreasuryStockCommonMember": 5133,
      "Ġdelays": 5134,
      "ĠAccord": 5135,
      "ĠCORPORATION": 5136,
      "acro": 5137,
      "Ġtechnical": 5138,
      "VariableInterestEntity": 5139,
      "elve": 5140,
      "Maturity": 5141,
      "changes": 5142,
      "Ġremediation": 5143,
      "mall": 5144,
      "Ġseries": 5145,
      "Str": 5146,
      "399": 5147,
      "Ġenforcement": 5148,
      "ka": 5149,
      "Research": 5150,
      "frastructure": 5151,
      "121": 5152,
      "Ġsus": 5153,
      "ANGE": 5154,
      "ĠInstruments": 5155,
      "GL": 5156,
      "oper": 5157,
      "Ġmethods": 5158,
      "IntersegmentEliminationMember": 5159,
      "393": 5160,
      "Ġsocial": 5161,
      "ĠFirst": 5162,
      "Ġsites": 5163,
      "ĠRevolving": 5164,
      "Ġsan": 5165,
      "Ġnegoti": 5166,
      "Ġâ": 5167,
      "USD": 5168,
      "Ġsits": 5169,
      "Ġintegration": 5170,
      "Ġwrite": 5171,
      "LLCMember": 5172,
      "Ġ2013": 5173,
      "Beneficiary": 5174,
      "employ": 5175,
      "Zero": 5176,
      "Ġexposed": 5177,
      "00010": 5178,
      "Reported": 5179,
      "Proceeds": 5180,
      "ĠDirector": 5181,
      "udden": 5182,
      "281": 5183,
      "Ġaff": 5184,
      "360": 5185,
      "Ġhalf": 5186,
      "ospital": 5187,
      "Ġemb": 5188,
      "ĠLife": 5189,
      "ĠÂłĠÂłĠÂłĠÂł": 5190,
      "Ġmonitoring": 5191,
      "Ġmulti": 5192,
      "ĠSouth": 5193,
      "overy": 5194,
      "PrimaryBeneficiary": 5195,
      "Ġmoment": 5196,
      "Ġbed": 5197,
      "PMorgan": 5198,
      "ards": 5199,
      "Ġground": 5200,
      "Ġcumulative": 5201,
      "Ġevolving": 5202,
      "Ġ2030": 5203,
      "Software": 5204,
      "5984": 5205,
      "0000065984": 5206,
      "Ġleading": 5207,
      "241": 5208,
      "MA": 5209,
      "Ġimplementation": 5210,
      "Ġassist": 5211,
      "Ġevaluated": 5212,
      "Ġ001": 5213,
      "Ġrefund": 5214,
      "Trust": 5215,
      "ÃĤ": 5216,
      "ĠROOM": 5217,
      "oring": 5218,
      "Ġoptim": 5219,
      "124": 5220,
      "ĠDE": 5221,
      "Private": 5222,
      "Ġdenominated": 5223,
      "Ġcompletion": 5224,
      "itting": 5225,
      "Ġdifference": 5226,
      "Ġregulators": 5227,
      "ĠMeasure": 5228,
      "Ġcore": 5229,
      "edia": 5230,
      "....": 5231,
      "Ġserve": 5232,
      "ummary": 5233,
      "Ġannually": 5234,
      "Ġdepends": 5235,
      "currency": 5236,
      "RIS": 5237,
      "Ġhouse": 5238,
      "Ġpermitted": 5239,
      "2208": 5240,
      "Ġitem": 5241,
      "Ġhedged": 5242,
      "0001032208": 5243,
      "CAOB": 5244,
      "Ġamend": 5245,
      "cal": 5246,
      "Reconc": 5247,
      "700": 5248,
      "Bond": 5249,
      "ĠYes": 5250,
      "urationInsuranceContracts": 5251,
      "isory": 5252,
      "acilities": 5253,
      "2029": 5254,
      "335": 5255,
      "Ġinherent": 5256,
      "aee": 5257,
      "ental": 5258,
      "ĠCiti": 5259,
      "________________________________": 5260,
      "Ġbrands": 5261,
      "OG": 5262,
      "259": 5263,
      "Ġphone": 5264,
      "239": 5265,
      "log": 5266,
      "ĠSC": 5267,
      "ivil": 5268,
      "Del": 5269,
      "utual": 5270,
      "millions": 5271,
      "Years": 5272,
      "stitut": 5273,
      "Ġmanufacturers": 5274,
      "ĠTR": 5275,
      "Ġagent": 5276,
      "ger": 5277,
      "Ġregulated": 5278,
      "ĠDeriv": 5279,
      "Ġprogress": 5280,
      "Ġdeveloping": 5281,
      "Ġtransferred": 5282,
      "Ġcommitment": 5283,
      "Transmission": 5284,
      "Ġinstall": 5285,
      "Ġpresentation": 5286,
      "ĠRegistrants": 5287,
      "olicies": 5288,
      "PrimaryBeneficiaryMember": 5289,
      "Ġsettlements": 5290,
      "Ġhuman": 5291,
      "aig": 5292,
      "ĠLimited": 5293,
      "ppl": 5294,
      "Available": 5295,
      "ĠResources": 5296,
      "ĠDevelopment": 5297,
      "ĠAT": 5298,
      "stone": 5299,
      "ĠOff": 5300,
      "Ġsil": 5301,
      "Ġdoing": 5302,
      "ĠEN": 5303,
      "eq": 5304,
      "131": 5305,
      "Equivalents": 5306,
      "nvironmental": 5307,
      "Ġworkforce": 5308,
      "Dispos": 5309,
      "**": 5310,
      "Ġpreced": 5311,
      "entral": 5312,
      "lusion": 5313,
      "Ow": 5314,
      "Ġ2012": 5315,
      "183": 5316,
      "ĠProducts": 5317,
      "Ġinvolve": 5318,
      "Diluted": 5319,
      "Ġuna": 5320,
      "ousing": 5321,
      "129": 5322,
      "urationInsuranceContractsAccidentYear": 5323,
      "States": 5324,
      "unicip": 5325,
      "ĠAmerican": 5326,
      "Technology": 5327,
      "Ġinfring": 5328,
      "ĠNumber": 5329,
      "ĠBL": 5330,
      "140": 5331,
      "OptionMember": 5332,
      "April": 5333,
      "Ġrental": 5334,
      "Incorporated": 5335,
      "Ġseason": 5336,
      "ways": 5337,
      "Ġenc": 5338,
      "Ġ50": 5339,
      "Invent": 5340,
      "Ġplanning": 5341,
      "mark": 5342,
      "Ġdocument": 5343,
      "Ġ[": 5344,
      "ench": 5345,
      "Ġfunded": 5346,
      "ustomers": 5347,
      "ĠQual": 5348,
      "ler": 5349,
      "ĠDon": 5350,
      "AccumulatedGainLossNet": 5351,
      "ural": 5352,
      "ResidentialMortgage": 5353,
      "ĠEmploy": 5354,
      "ministration": 5355,
      "Ġvers": 5356,
      "ĠREIT": 5357,
      "offs": 5358,
      "Ġexpire": 5359,
      "ĠExpenses": 5360,
      "omin": 5361,
      "ĠPreferred": 5362,
      "jpm": 5363,
      "Ġcalculation": 5364,
      "Off": 5365,
      "ĠExt": 5366,
      "04912": 5367,
      "0001404912": 5368,
      "Ġenacted": 5369,
      "uled": 5370,
      "Ġnote": 5371,
      "Ġdisposal": 5372,
      "vested": 5373,
      "unicipal": 5374,
      "Ġdetails": 5375,
      "eter": 5376,
      "383": 5377,
      "Ġlimits": 5378,
      "Ġassessments": 5379,
      "Ġcarryfor": 5380,
      "Ġindefin": 5381,
      "opic": 5382,
      "Ġfloor": 5383,
      "CashEquivalents": 5384,
      "Ġsaid": 5385,
      "2013": 5386,
      "Ġrule": 5387,
      "OperationsMember": 5388,
      "152": 5389,
      "Ġutilize": 5390,
      "ving": 5391,
      "Ġpatents": 5392,
      "Ġcult": 5393,
      "Ġstands": 5394,
      "Ġresponsibility": 5395,
      "ĠSome": 5396,
      "333": 5397,
      "ElectricCompanyMember": 5398,
      "rovements": 5399,
      "Ġnumerous": 5400,
      "Ġtempor": 5401,
      "Ġindex": 5402,
      "LY": 5403,
      "ĠBased": 5404,
      "DaysPastDueMember": 5405,
      "Ġsite": 5406,
      "128": 5407,
      "365": 5408,
      "829": 5409,
      "ĠSignificant": 5410,
      "Ġanti": 5411,
      "October": 5412,
      "Ġinstrument": 5413,
      "Ġfines": 5414,
      "Properties": 5415,
      "Ġabs": 5416,
      "shares": 5417,
      "Ġstated": 5418,
      "Ġmaintaining": 5419,
      "Ġprobl": 5420,
      "296": 5421,
      "ains": 5422,
      "Ġfunctional": 5423,
      "LineOfCreditMember": 5424,
      "Ġword": 5425,
      "nce": 5426,
      "Domestic": 5427,
      "Ġdisput": 5428,
      "954": 5429,
      "November": 5430,
      "istra": 5431,
      "apid": 5432,
      "Ġcenter": 5433,
      "FS": 5434,
      "Ġpreparation": 5435,
      "ĠChase": 5436,
      "odel": 5437,
      "Ġwholly": 5438,
      "000117": 5439,
      "Ab": 5440,
      "Ġnuclear": 5441,
      "Ġchanging": 5442,
      "etro": 5443,
      "ĠWill": 5444,
      "ĠVIEs": 5445,
      "AccumulatedGainLossNetCashFlowHedge": 5446,
      "Expenses": 5447,
      "Ġincident": 5448,
      "ta": 5449,
      "NotesMember": 5450,
      "ĠMe": 5451,
      "kay": 5452,
      "ĠCosts": 5453,
      "ĠAcquisition": 5454,
      "Ġregularly": 5455,
      "ĠSecurity": 5456,
      "Federal": 5457,
      "Utilities": 5458,
      "Ġappeal": 5459,
      "Ġplatforms": 5460,
      "pre": 5461,
      "ĠExpense": 5462,
      "Ġplaint": 5463,
      "0000049": 5464,
      "139": 5465,
      "Ġconnect": 5466,
      "evrg": 5467,
      "Ġgets": 5468,
      "Ġfood": 5469,
      "ĠAccordingly": 5470,
      "Ġexpansion": 5471,
      "Ġgreat": 5472,
      "Ġreviews": 5473,
      ");": 5474,
      "fill": 5475,
      "ne": 5476,
      "ĠSheet": 5477,
      "ĠOrgan": 5478,
      "Ġoffices": 5479,
      "osition": 5480,
      "Ġ90": 5481,
      "Including": 5482,
      "INE": 5483,
      "217": 5484,
      "icks": 5485,
      "137": 5486,
      "Count": 5487,
      "Ġmeaning": 5488,
      "ĠAR": 5489,
      "ĠService": 5490,
      "mt": 5491,
      "Ġenterprise": 5492,
      "AndOtherMember": 5493,
      "izon": 5494,
      "Ġsigned": 5495,
      "0000874766": 5496,
      "ĠLe": 5497,
      "Ġorganizations": 5498,
      "KR": 5499,
      "Ġreflecting": 5500,
      "051": 5501,
      "240": 5502,
      "Provision": 5503,
      "Ġtraining": 5504,
      "134": 5505,
      "Ġtravel": 5506,
      "ĠPR": 5507,
      "285": 5508,
      "nect": 5509,
      "irt": 5510,
      "000112": 5511,
      "Ġassert": 5512,
      "138": 5513,
      "299": 5514,
      "Ġdegree": 5515,
      "ĠDate": 5516,
      "AccumulatedTranslation": 5517,
      "ĠSubsidiaries": 5518,
      "Ġvalued": 5519,
      "Ġrevised": 5520,
      "Ġderived": 5521,
      "ĠOw": 5522,
      "RateMember": 5523,
      "FinancingReceivables": 5524,
      "Ġpublicly": 5525,
      "AccumulatedDefinedBenefitPlansAdjustmentMember": 5526,
      "184": 5527,
      "entives": 5528,
      "ĠEQU": 5529,
      "Ġfocused": 5530,
      "ĠHis": 5531,
      "Ġraw": 5532,
      "USTreasury": 5533,
      "ProgramMember": 5534,
      "307": 5535,
      "Evergy": 5536,
      "ama": 5537,
      "175": 5538,
      "Ġself": 5539,
      "Ġcategories": 5540,
      "itional": 5541,
      "AccumulatedGainLossNetCashFlowHedgeParentMember": 5542,
      "Ġwom": 5543,
      "Ġfuck": 5544,
      "Ġtow": 5545,
      "date": 5546,
      "Ġenhance": 5547,
      "Ġjo": 5548,
      "benefit": 5549,
      "Losses": 5550,
      "ĠFrom": 5551,
      "Ġgl": 5552,
      "Ġphysical": 5553,
      "Ġdiscretion": 5554,
      "These": 5555,
      "ĠIndex": 5556,
      "Ġvehicle": 5557,
      "ateralized": 5558,
      "Ġsees": 5559,
      "Ġcontains": 5560,
      "ĠProxy": 5561,
      "AccumulatedTranslationAdjustmentMember": 5562,
      "Ġtotaled": 5563,
      "Ġworldwide": 5564,
      "Ġsanctions": 5565,
      "ĠRSUs": 5566,
      "stream": 5567,
      "ula": 5568,
      "ippi": 5569,
      "ump": 5570,
      "Price": 5571,
      "Ġelectricity": 5572,
      "Ġconsisted": 5573,
      "issippi": 5574,
      "Ann": 5575,
      "Ġmacro": 5576,
      "Ġcommunities": 5577,
      "Ġmotion": 5578,
      "Ġintegrated": 5579,
      "ĠAdv": 5580,
      "Ġ2002": 5581,
      "He": 5582,
      "ĠFDA": 5583,
      "apter": 5584,
      "Ġtrademark": 5585,
      "reet": 5586,
      "CHANGE": 5587,
      "Ġsubmitted": 5588,
      "eginning": 5589,
      "Ġimplemented": 5590,
      "atastrop": 5591,
      "Ġdrive": 5592,
      "144": 5593,
      "ingencies": 5594,
      "ĠRES": 5595,
      "atin": 5596,
      "Ġnational": 5597,
      "226": 5598,
      "198": 5599,
      "eorg": 5600,
      "ĠCommercial": 5601,
      "143": 5602,
      "Ġmechan": 5603,
      "Ġdisruption": 5604,
      "Building": 5605,
      "Ġmen": 5606,
      "ĠIT": 5607,
      "ĠJust": 5608,
      "lantic": 5609,
      "Ġpurch": 5610,
      "Ġquick": 5611,
      "Ġconvert": 5612,
      "ommission": 5613,
      "ĠSch": 5614,
      "295": 5615,
      "Ġdepending": 5616,
      "ĠDocument": 5617,
      "Basic": 5618,
      "urer": 5619,
      "InsuranceMember": 5620,
      "ĠProperty": 5621,
      "onna": 5622,
      "ĠRuss": 5623,
      "Ġcry": 5624,
      "Ġmetrics": 5625,
      "junction": 5626,
      "TOR": 5627,
      "Ġexpiration": 5628,
      "ivision": 5629,
      "155": 5630,
      "Ġsettled": 5631,
      "ĠYeah": 5632,
      "Ġarm": 5633,
      "Ġ/": 5634,
      "ITED": 5635,
      "ĠMedicare": 5636,
      "FixedIncome": 5637,
      "apt": 5638,
      "141": 5639,
      "ists": 5640,
      "Ġreferred": 5641,
      "Ġdoesn": 5642,
      "Ġimpairments": 5643,
      "ĠReceiv": 5644,
      "kim": 5645,
      "146": 5646,
      "Ġduration": 5647,
      "Acquisitions": 5648,
      "Ġassessing": 5649,
      "bx": 5650,
      "Ġreductions": 5651,
      "abs": 5652,
      "ĠRegulatory": 5653,
      "PSC": 5654,
      "Ġefficiency": 5655,
      "Ġmoves": 5656,
      "Ġallowances": 5657,
      "orry": 5658,
      "view": 5659,
      "Ġcorre": 5660,
      "0777": 5661,
      "Ġbuy": 5662,
      "Purchase": 5663,
      "142": 5664,
      "night": 5665,
      "sider": 5666,
      "Ġtalent": 5667,
      "0001390777": 5668,
      "ĠSc": 5669,
      "Red": 5670,
      "ParentCompanyMember": 5671,
      "Ġgun": 5672,
      "IBOR": 5673,
      "unications": 5674,
      "00007327": 5675,
      "ĠFERC": 5676,
      "ĠOut": 5677,
      "))": 5678,
      "147": 5679,
      "ĠPrice": 5680,
      "any": 5681,
      "ĠCare": 5682,
      "ShareMember": 5683,
      "Prior": 5684,
      "Ġindustries": 5685,
      "OUSE": 5686,
      "antage": 5687,
      "Ġconversion": 5688,
      "Ġmarketable": 5689,
      "ĠRo": 5690,
      "Ġsn": 5691,
      "ĠPrior": 5692,
      "Edison": 5693,
      "NetMember": 5694,
      "DM": 5695,
      "Ġagreed": 5696,
      "FIC": 5697,
      "Adjustment": 5698,
      "ĠCONTINUED": 5699,
      "amortized": 5700,
      "ServiceMember": 5701,
      "CashEquivalentsMember": 5702,
      "UP": 5703,
      "ETS": 5704,
      "Ġfunction": 5705,
      "Repurchase": 5706,
      "ĠMc": 5707,
      "fire": 5708,
      "Ġship": 5709,
      "Ġconducted": 5710,
      "13676": 5711,
      "0000713676": 5712,
      "Ġhur": 5713,
      "197": 5714,
      "549": 5715,
      "ĠMarkets": 5716,
      "uddenly": 5717,
      "Ġkeep": 5718,
      "Ġdidn": 5719,
      "NetInvestment": 5720,
      "Ġrecords": 5721,
      "Ġ*": 5722,
      "SION": 5723,
      "angibles": 5724,
      "ĠEXCHANGE": 5725,
      "Ġfunctions": 5726,
      "Ġaudited": 5727,
      "ĠAOCI": 5728,
      "August": 5729,
      "040": 5730,
      "Held": 5731,
      "unch": 5732,
      "Ġlenders": 5733,
      "Ġconcluded": 5734,
      ".âĢĻ": 5735,
      "ĠAsia": 5736,
      "Ġdi": 5737,
      "242": 5738,
      "Ġpreceding": 5739,
      "Ġcollection": 5740,
      "Ġrevers": 5741,
      "Ġrespond": 5742,
      "ĠStandards": 5743,
      "Ġreceipt": 5744,
      "Ġhaving": 5745,
      "Pacific": 5746,
      "Commitments": 5747,
      "595": 5748,
      "sc": 5749,
      "Ġmanufacture": 5750,
      "pfg": 5751,
      "Land": 5752,
      "aggreg": 5753,
      "Ġpatients": 5754,
      "ĠMerger": 5755,
      "Ġemployment": 5756,
      "Supplemental": 5757,
      "which": 5758,
      "URES": 5759,
      "Ġmanaging": 5760,
      "afety": 5761,
      "Ġunderwriting": 5762,
      "Ġobjectives": 5763,
      "ai": 5764,
      "ShortD": 5765,
      "Ġcontribution": 5766,
      "Ġsure": 5767,
      "Ġconsult": 5768,
      "%)": 5769,
      "Ġlater": 5770,
      "Ġaffecting": 5771,
      "inu": 5772,
      "craft": 5773,
      "ĠEU": 5774,
      "Ġenters": 5775,
      "Adv": 5776,
      "ĠGuarant": 5777,
      "ĠCenter": 5778,
      "overnance": 5779,
      "ute": 5780,
      "unded": 5781,
      "877": 5782,
      "wfc": 5783,
      "dAt": 5784,
      "Ġperce": 5785,
      "ancy": 5786,
      "Ġweak": 5787,
      "ĠSim": 5788,
      "Ġdism": 5789,
      "Ġentitled": 5790,
      "Ġne": 5791,
      "151": 5792,
      "ĠBanc": 5793,
      "ods": 5794,
      "ASB": 5795,
      "Ġscope": 5796,
      "ĠExtension": 5797,
      "Ġsavings": 5798,
      "274": 5799,
      "Ġcharged": 5800,
      "Ġmove": 5801,
      "ireless": 5802,
      "ingent": 5803,
      "look": 5804,
      "held": 5805,
      "AssetValue": 5806,
      "tributions": 5807,
      "ĠHedg": 5808,
      "dollars": 5809,
      "NetAssetValue": 5810,
      "165": 5811,
      "Ġcategory": 5812,
      "aph": 5813,
      "Ġincentives": 5814,
      "dec": 5815,
      "187": 5816,
      "Ġintrodu": 5817,
      "212": 5818,
      "Ġallows": 5819,
      "ATIONS": 5820,
      "otive": 5821,
      "RSU": 5822,
      "ionMember": 5823,
      "Ġinflu": 5824,
      "Commission": 5825,
      "ĠParent": 5826,
      "900": 5827,
      "ĠSP": 5828,
      "Ġtele": 5829,
      "ĠPolicies": 5830,
      "CostsMember": 5831,
      "uit": 5832,
      "164": 5833,
      "875": 5834,
      "ike": 5835,
      "Ġenable": 5836,
      "Ġpositive": 5837,
      "ĠPeriod": 5838,
      "Ġnight": 5839,
      "Ox": 5840,
      "CorporateNon": 5841,
      "pe": 5842,
      "uts": 5843,
      "FORMATION": 5844,
      "ĠREPORT": 5845,
      "334": 5846,
      "road": 5847,
      "Ġtraded": 5848,
      "2004": 5849,
      "eorgia": 5850,
      "280": 5851,
      "Ġguaranteed": 5852,
      "Ġinability": 5853,
      "Ġrecoverable": 5854,
      "Ġwide": 5855,
      "Ġrecurring": 5856,
      "ancing": 5857,
      "Ġtools": 5858,
      "Ġrapid": 5859,
      "aily": 5860,
      "Ġsound": 5861,
      "eograph": 5862,
      "ĠTechnology": 5863,
      "Ġthing": 5864,
      "ĠCOND": 5865,
      "Ġregistr": 5866,
      "Ġwee": 5867,
      "507": 5868,
      "onomy": 5869,
      "Ġexce": 5870,
      "Ã°": 5871,
      "Ġduly": 5872,
      "925": 5873,
      "Ġexport": 5874,
      "ĠKing": 5875,
      "Ġwall": 5876,
      "cle": 5877,
      "PerShareMember": 5878,
      "UnsecuredDebtMember": 5879,
      "Expected": 5880,
      "Ġimmediately": 5881,
      "dAtNetAssetValue": 5882,
      "ĠExp": 5883,
      "Ġattacks": 5884,
      "Description": 5885,
      "747": 5886,
      "RealEstateMember": 5887,
      "158": 5888,
      "DE": 5889,
      "ĠDeferred": 5890,
      "ĠSupplement": 5891,
      "ĠBR": 5892,
      "0000879": 5893,
      "Ġamendments": 5894,
      "ĠPurchase": 5895,
      "ille": 5896,
      "Ġrele": 5897,
      "InterestRateSwapMember": 5898,
      "Ġevidence": 5899,
      "Ġgonna": 5900,
      "ĠFinance": 5901,
      "sumers": 5902,
      "153": 5903,
      "atter": 5904,
      "Ġquantitative": 5905,
      "Ġcivil": 5906,
      "489": 5907,
      "Ġconform": 5908,
      "Ġmobile": 5909,
      "dAtNetAssetValuePerShareMember": 5910,
      "Ġreally": 5911,
      "Ġthreats": 5912,
      "Ġparent": 5913,
      "Pursuant": 5914,
      "sy": 5915,
      "Ġdrug": 5916,
      "ĠConsumer": 5917,
      "Ġrepresenting": 5918,
      "Ġgirl": 5919,
      "ĠLouis": 5920,
      "Ġforecasted": 5921,
      "CorporateNonSegmentMember": 5922,
      "ĠPRO": 5923,
      "BER": 5924,
      "aired": 5925,
      "Ġhimself": 5926,
      "SolutionsMember": 5927,
      "221": 5928,
      "arbanes": 5929,
      "irty": 5930,
      "Ġusers": 5931,
      "Sett": 5932,
      "ĠEPA": 5933,
      "ITION": 5934,
      "Ãŀ": 5935,
      "Ġrelates": 5936,
      "364": 5937,
      "Ġremains": 5938,
      "FairValueMeasuredAtNetAssetValuePerShareMember": 5939,
      "ReceivableMember": 5940,
      "Ġissuer": 5941,
      "Ġerror": 5942,
      "ersonal": 5943,
      "bk": 5944,
      "Ġprovider": 5945,
      "Ġnotice": 5946,
      "7996": 5947,
      "Ġfranch": 5948,
      "Ġindividuals": 5949,
      "EmployeeStock": 5950,
      "Holdings": 5951,
      "Ġmacroeconomic": 5952,
      "ĠPL": 5953,
      "Increase": 5954,
      "Information": 5955,
      "Ġmeans": 5956,
      "Ġauthority": 5957,
      "urrence": 5958,
      "6328": 5959,
      "Ġshown": 5960,
      "Ġoccurred": 5961,
      "Ġart": 5962,
      "ĠHold": 5963,
      "uff": 5964,
      "Qual": 5965,
      "0001126328": 5966,
      "aded": 5967,
      "orter": 5968,
      "Ġending": 5969,
      "etition": 5970,
      "Ġremov": 5971,
      "ommissioning": 5972,
      "Ġsustainability": 5973,
      "ĠNO": 5974,
      "Ġclosed": 5975,
      "Ġcontingencies": 5976,
      "pecific": 5977,
      "xbr": 5978,
      "imates": 5979,
      "ĠSystem": 5980,
      "0158": 5981,
      "Ġupdate": 5982,
      "ulner": 5983,
      "Ġanticipate": 5984,
      "airment": 5985,
      "Ġdraw": 5986,
      "iso": 5987,
      "Benefits": 5988,
      "Ġstay": 5989,
      "Ġtaking": 5990,
      "Ġcode": 5991,
      "enchmark": 5992,
      "ĠSarbanes": 5993,
      "Ġhospital": 5994,
      "Be": 5995,
      "elationship": 5996,
      "boe": 5997,
      "Discontinued": 5998,
      "ĠSouthern": 5999,
      "784": 6000,
      "roxim": 6001,
      "dent": 6002,
      "Oxley": 6003,
      "abb": 6004,
      "Ġgovernance": 6005,
      "IAN": 6006,
      "ĠNow": 6007,
      "TH": 6008,
      "Ġrenewable": 6009,
      "Ġreliability": 6010,
      "Ġequivalent": 6011,
      "230": 6012,
      "ĠDe": 6013,
      "ours": 6014,
      "investment": 6015,
      "Ġcarryforwards": 6016,
      "Cumulative": 6017,
      "Ġopens": 6018,
      "ĠJohn": 6019,
      "Ġsusp": 6020,
      "Ġconfidential": 6021,
      "Ġalleged": 6022,
      "Ġfeatures": 6023,
      "observable": 6024,
      "Ġnamed": 6025,
      "qualified": 6026,
      "Ġimpose": 6027,
      "xbrli": 6028,
      "stand": 6029,
      "fr": 6030,
      "filed": 6031,
      "462": 6032,
      "ĠLtd": 6033,
      "Ġexpects": 6034,
      "376": 6035,
      "ĠDuke": 6036,
      "EG": 6037,
      "Ġsets": 6038,
      "Contents": 6039,
      "dom": 6040,
      "YS": 6041,
      "HN": 6042,
      "partment": 6043,
      "sw": 6044,
      "162": 6045,
      "321": 6046,
      "SO": 6047,
      "Ġonline": 6048,
      "ĠGener": 6049,
      "ĠRetirement": 6050,
      "450": 6051,
      "Prepaid": 6052,
      "ĠWhere": 6053,
      "Ġtowards": 6054,
      "167": 6055,
      "199": 6056,
      "ContractsMember": 6057,
      "ENSED": 6058,
      "Ġtrustee": 6059,
      "Ġpurpose": 6060,
      "Ġpool": 6061,
      "222": 6062,
      "Ġmeeting": 6063,
      "Ġdiscounts": 6064,
      "Ġvulner": 6065,
      "accelerated": 6066,
      "Construction": 6067,
      "Ġsize": 6068,
      "alid": 6069,
      "Ġprojections": 6070,
      "000114": 6071,
      "Ġunauthorized": 6072,
      "ĠLoans": 6073,
      "185": 6074,
      "RevenueMember": 6075,
      "ildfire": 6076,
      "318": 6077,
      "ĠINFORMATION": 6078,
      "comes": 6079,
      "282": 6080,
      "CashAnd": 6081,
      "Ġdeploy": 6082,
      "EquipmentMember": 6083,
      "346": 6084,
      "Ġlargest": 6085,
      "ABLE": 6086,
      "163": 6087,
      "Fr": 6088,
      "Sp": 6089,
      "Ġregional": 6090,
      "ifiable": 6091,
      "erce": 6092,
      "161": 6093,
      "OSE": 6094,
      "ĠTechnologies": 6095,
      "OCK": 6096,
      "Legal": 6097,
      "Trade": 6098,
      "398": 6099,
      "Ġrestated": 6100,
      "ĠAsset": 6101,
      "Ġgoverning": 6102,
      "collect": 6103,
      "ANCE": 6104,
      "ĠTaxonomy": 6105,
      "utures": 6106,
      "Ġutilized": 6107,
      "Ġwholesale": 6108,
      "177": 6109,
      "everance": 6110,
      "Ġintercompany": 6111,
      "168": 6112,
      "OutOf": 6113,
      "End": 6114,
      "Ġbasic": 6115,
      "quency": 6116,
      "Subsequent": 6117,
      "Ġoversight": 6118,
      "232": 6119,
      "Ġclearing": 6120,
      "Right": 6121,
      "Ġscr": 6122,
      "ĠACT": 6123,
      "4217": 6124,
      "Ġscheduled": 6125,
      "ReclassificationOutOf": 6126,
      "ĠEast": 6127,
      "THE": 6128,
      "de": 6129,
      "RestrictedStockUnitsRSU": 6130,
      "Ġrequirement": 6131,
      "Ġhy": 6132,
      "ĠMex": 6133,
      "311": 6134,
      "ality": 6135,
      "Ġdead": 6136,
      "ĠEach": 6137,
      "ReclassificationOutOfAccumulatedOtherComprehensiveIncomeMember": 6138,
      "two": 6139,
      "5527": 6140,
      "ustral": 6141,
      "Center": 6142,
      "ames": 6143,
      "oor": 6144,
      "0000035527": 6145,
      "00007159": 6146,
      "0000715957": 6147,
      "echniques": 6148,
      "Discounted": 6149,
      "ored": 6150,
      "Ġreimbursement": 6151,
      "lier": 6152,
      "Ġprepared": 6153,
      "Ġqualitative": 6154,
      "ĠBecause": 6155,
      "ĠDepartment": 6156,
      "ĠCount": 6157,
      "SharesMember": 6158,
      "Ġpe": 6159,
      "ĠRev": 6160,
      "174": 6161,
      "ĠBancorp": 6162,
      "Ġdismiss": 6163,
      "ĠAmeren": 6164,
      "EO": 6165,
      "Ġtwelve": 6166,
      "body": 6167,
      "650": 6168,
      "Ġregion": 6169,
      "ĠDue": 6170,
      "Ġdetect": 6171,
      "ARL": 6172,
      "mr": 6173,
      "Ġnoted": 6174,
      "AccumulatedNet": 6175,
      "Ġrelease": 6176,
      "Ġreb": 6177,
      "ĠVirginia": 6178,
      "EST": 6179,
      "237": 6180,
      "PartyMember": 6181,
      "EXT": 6182,
      "ney": 6183,
      "CostOf": 6184,
      "Ġtemporary": 6185,
      "ĠDO": 6186,
      "Ġglob": 6187,
      "ple": 6188,
      "FairValueHedgingMember": 6189,
      "176": 6190,
      "Ġrelief": 6191,
      "179": 6192,
      "ĠStockholders": 6193,
      "ĠAlso": 6194,
      "GovernmentMember": 6195,
      "ĠReserve": 6196,
      "base": 6197,
      "173": 6198,
      "UNT": 6199,
      "Ġgrants": 6200,
      "Ġratios": 6201,
      "Convertible": 6202,
      "354": 6203,
      "Ġpartnerships": 6204,
      "258": 6205,
      "Sc": 6206,
      "195": 6207,
      "ANS": 6208,
      "Internal": 6209,
      "Ġconsolidation": 6210,
      "2030": 6211,
      "ĠBO": 6212,
      "Ġbreak": 6213,
      "Ġoffers": 6214,
      "Ġrealize": 6215,
      "Cl": 6216,
      "IGN": 6217,
      "ready": 6218,
      "agnost": 6219,
      "cv": 6220,
      "Ġnotional": 6221,
      "171": 6222,
      "345": 6223,
      "2910": 6224,
      "ĠIncorporated": 6225,
      "0001002910": 6226,
      "Ġleadership": 6227,
      "opping": 6228,
      "Ġalways": 6229,
      "Ġextend": 6230,
      "Development": 6231,
      "Ġdivid": 6232,
      "arges": 6233,
      "ĠCOMM": 6234,
      "GroupMember": 6235,
      "Ġregions": 6236,
      "Ġsole": 6237,
      "Special": 6238,
      "July": 6239,
      "Ġgovernments": 6240,
      "Ġrepresented": 6241,
      "anufact": 6242,
      "Ġfurn": 6243,
      "arning": 6244,
      "Obligations": 6245,
      "254": 6246,
      "key": 6247,
      "58681": 6248,
      "0001858681": 6249,
      "ĠDelaware": 6250,
      "Ġintern": 6251,
      "279": 6252,
      "Ġattem": 6253,
      "ĠEQUITY": 6254,
      "Ġ2011": 6255,
      "Ġadvanced": 6256,
      "ĠAM": 6257,
      "cb": 6258,
      "Security": 6259,
      "gen": 6260,
      "ssued": 6261,
      "Ġfall": 6262,
      "397": 6263,
      "ĠWhy": 6264,
      "South": 6265,
      "Ġbreaches": 6266,
      "ids": 6267,
      "493": 6268,
      "imes": 6269,
      "278": 6270,
      "Ġflex": 6271,
      "Ġintegral": 6272,
      "Ġengage": 6273,
      "Ġlet": 6274,
      "ĠSystems": 6275,
      "Ġoperates": 6276,
      "ĠGo": 6277,
      "ĠMD": 6278,
      "203": 6279,
      "ivisions": 6280,
      "Ġseeking": 6281,
      "22224": 6282,
      "Ġoutcomes": 6283,
      "RestrictedStockUnitsRSUMember": 6284,
      "0000922224": 6285,
      "Ġconsequ": 6286,
      "Ġprefer": 6287,
      "GM": 6288,
      "ĠStreet": 6289,
      "ĠBenefit": 6290,
      "ĠProtection": 6291,
      "Incentive": 6292,
      "Gains": 6293,
      "iversal": 6294,
      "Ġarise": 6295,
      "istic": 6296,
      "374": 6297,
      "ĠOR": 6298,
      "Ġinterru": 6299,
      "PolicyholderAccountBalanceGuaranteedMinimumCreditingRateRangeFrom": 6300,
      "NorthAmeric": 6301,
      "ĠOfficers": 6302,
      "emical": 6303,
      "Ġmodified": 6304,
      "Ġconsiders": 6305,
      "Ġ$(": 6306,
      "ĠOPER": 6307,
      "FO": 6308,
      "egrated": 6309,
      "ĠEl": 6310,
      "Ġtargets": 6311,
      "Reinsurance": 6312,
      "CreditCard": 6313,
      "elligence": 6314,
      "ĠSupplementary": 6315,
      "Ġconjunction": 6316,
      "Ġmonetary": 6317,
      "Ġstops": 6318,
      "Ġbig": 6319,
      "Ġscre": 6320,
      "96159": 6321,
      "0000896159": 6322,
      "550": 6323,
      "Ġauthorization": 6324,
      "Ġgroups": 6325,
      "Ġunobservable": 6326,
      "Ġfrequent": 6327,
      "ĠGE": 6328,
      "ĠAre": 6329,
      "1269": 6330,
      "ĠMore": 6331,
      "ĠLink": 6332,
      "CONSOLIDATED": 6333,
      "000171": 6334,
      "0001711269": 6335,
      "ĠLT": 6336,
      "Purchased": 6337,
      "182": 6338,
      "ĠJACK": 6339,
      "Ġleft": 6340,
      "045": 6341,
      "1576": 6342,
      "Third": 6343,
      "210": 6344,
      "onduct": 6345,
      "ĠSAM": 6346,
      "SeniorUnsecured": 6347,
      "0000091576": 6348,
      "188": 6349,
      "folios": 6350,
      "Ġparts": 6351,
      "apo": 6352,
      "Ġinside": 6353,
      "ĠGu": 6354,
      "ATER": 6355,
      "uments": 6356,
      "ĠSe": 6357,
      "emiconduct": 6358,
      "ĠFramework": 6359,
      "mn": 6360,
      "most": 6361,
      "ritical": 6362,
      "ĠJPMorgan": 6363,
      "aves": 6364,
      "draw": 6365,
      "Ġlargely": 6366,
      "va": 6367,
      "ressed": 6368,
      "Ġproduce": 6369,
      "uto": 6370,
      "ik": 6371,
      "225": 6372,
      "service": 6373,
      "riber": 6374,
      "ĠContingencies": 6375,
      "SP": 6376,
      "ĠEng": 6377,
      "ategic": 6378,
      "Ġminim": 6379,
      "181": 6380,
      "GainLossMember": 6381,
      "bon": 6382,
      "Ġsolar": 6383,
      "imately": 6384,
      "non": 6385,
      "Ġoccup": 6386,
      "aul": 6387,
      "Ġadvance": 6388,
      "Payable": 6389,
      "ĠIssu": 6390,
      "Ġsum": 6391,
      "Subsidiaries": 6392,
      "Ġdisposition": 6393,
      "NE": 6394,
      "Ġparticipation": 6395,
      "Ġtechniques": 6396,
      "ris": 6397,
      "Ġmand": 6398,
      "Ġconstr": 6399,
      "2741": 6400,
      "186": 6401,
      "imated": 6402,
      "ades": 6403,
      "west": 6404,
      "VE": 6405,
      "ĠMy": 6406,
      "Ġimposed": 6407,
      "0000072741": 6408,
      "Ġindefinite": 6409,
      "ANG": 6410,
      "ĠInteractive": 6411,
      "California": 6412,
      "328": 6413,
      "Ġdeter": 6414,
      "191": 6415,
      "ĠAf": 6416,
      "enario": 6417,
      "Ġcommissions": 6418,
      "pects": 6419,
      "Ġembedded": 6420,
      "Ġlocation": 6421,
      "Ġattention": 6422,
      "effect": 6423,
      "ĠEPS": 6424,
      "phone": 6425,
      "ReceivablesMember": 6426,
      "220": 6427,
      "Ġ:": 6428,
      "Ġpage": 6429,
      "grade": 6430,
      "rest": 6431,
      "HI": 6432,
      "Ġpattern": 6433,
      "Ġretro": 6434,
      "Ġinvolving": 6435,
      "reased": 6436,
      "eesMember": 6437,
      "Ġet": 6438,
      "ĠBl": 6439,
      "PercentDue": 6440,
      "eneficial": 6441,
      "olved": 6442,
      "ĠForeign": 6443,
      "ĠPay": 6444,
      "ĠConvertible": 6445,
      "Ġever": 6446,
      "193": 6447,
      "00009276": 6448,
      "0000927628": 6449,
      "Purchases": 6450,
      "Ġarr": 6451,
      "Ġreputational": 6452,
      "0000315": 6453,
      "ĠEL": 6454,
      "eting": 6455,
      "where": 6456,
      "Ġprofits": 6457,
      "ffiliated": 6458,
      "Ġfeel": 6459,
      "CashAndCashEquivalentsMember": 6460,
      "Ġchannels": 6461,
      "Ġmatch": 6462,
      "ĠSECURITIES": 6463,
      "ĠSw": 6464,
      "forming": 6465,
      "000002": 6466,
      "van": 6467,
      "Certification": 6468,
      "Ameren": 6469,
      "âĢł": 6470,
      "ĠCR": 6471,
      "Ġsmiles": 6472,
      "conomic": 6473,
      "Ġterminated": 6474,
      "Ġlog": 6475,
      "DukeEnergy": 6476,
      "ĠGovernance": 6477,
      "Ġcustomary": 6478,
      "Ġbody": 6479,
      "355": 6480,
      "Electricity": 6481,
      "ĠPA": 6482,
      "ered": 6483,
      "Ġdefendants": 6484,
      "rist": 6485,
      "ĠSOFR": 6486,
      "cience": 6487,
      "2014": 6488,
      "ĠLosses": 6489,
      "380": 6490,
      "odities": 6491,
      "AmountFairValueDisclosureMember": 6492,
      "CarryingReported": 6493,
      "CarryingReportedAmountFairValueDisclosureMember": 6494,
      "Ġinvestor": 6495,
      "Ġfri": 6496,
      "178": 6497,
      "Adjustments": 6498,
      "Effective": 6499,
      "204": 6500,
      "Ġcell": 6501,
      "atic": 6502,
      "Ġbecame": 6503,
      "ĠYears": 6504,
      "Ġsuit": 6505,
      "rowth": 6506,
      "ĠRegistered": 6507,
      "277": 6508,
      "Ġsupplies": 6509,
      "Ġleased": 6510,
      "194": 6511,
      "Ġculture": 6512,
      "607": 6513,
      "ĠHOUSE": 6514,
      "Autom": 6515,
      "ANY": 6516,
      "Ġbehav": 6517,
      "Ġ2010": 6518,
      "Ġincreasingly": 6519,
      "266": 6520,
      "Products": 6521,
      "Ġlisted": 6522,
      "206": 6523,
      "Ġqualify": 6524,
      "Material": 6525,
      "Ġalign": 6526,
      "ĠEd": 6527,
      "Commun": 6528,
      "Limited": 6529,
      "Ġvoting": 6530,
      "Ġshorter": 6531,
      "amer": 6532,
      "uh": 6533,
      "USGovernment": 6534,
      "VER": 6535,
      "room": 6536,
      "0000100": 6537,
      "ĠKKR": 6538,
      "TwoThousandTwenty": 6539,
      "Ġstop": 6540,
      "alt": 6541,
      "Ġacceler": 6542,
      "ĠPension": 6543,
      "Ġdecreases": 6544,
      "192": 6545,
      "Ġmaintained": 6546,
      "Ġretained": 6547,
      "ouri": 6548,
      "Ġplc": 6549,
      "tributed": 6550,
      "TY": 6551,
      "yber": 6552,
      "Ġbring": 6553,
      "Ġassessed": 6554,
      "Ġcand": 6555,
      "Ġissuances": 6556,
      "Ġbad": 6557,
      "Ġlock": 6558,
      "OtherCurrent": 6559,
      "Ġsecure": 6560,
      "Ġrequiring": 6561,
      "Ġonce": 6562,
      "dy": 6563,
      "0000004977": 6564,
      "Ġquickly": 6565,
      "369": 6566,
      "alse": 6567,
      "356": 6568,
      "000107": 6569,
      "ortgag": 6570,
      "oke": 6571,
      "Instruments": 6572,
      "Ġexclude": 6573,
      "Ġultimately": 6574,
      "Ġsupplier": 6575,
      "Ġunderstanding": 6576,
      "sored": 6577,
      "7862": 6578,
      "0001047862": 6579,
      "Ġ2007": 6580,
      "Ġblo": 6581,
      "erral": 6582,
      "Ġseparately": 6583,
      "free": 6584,
      "052": 6585,
      "Ġdaily": 6586,
      "00016339": 6587,
      "2044": 6588,
      "Ġlaugh": 6589,
      "ĠAD": 6590,
      "Name": 6591,
      "000146": 6592,
      "lorid": 6593,
      "468": 6594,
      "207": 6595,
      "Ġlicensing": 6596,
      "West": 6597,
      "SC": 6598,
      "Ġfacilit": 6599,
      "iet": 6600,
      "Ġapprovals": 6601,
      "ience": 6602,
      "mo": 6603,
      "ĠDR": 6604,
      "ony": 6605,
      "Ġsensitive": 6606,
      "Ġunpaid": 6607,
      "Ġpubl": 6608,
      "Owned": 6609,
      "Bo": 6610,
      "ĠEvergy": 6611,
      "ceedings": 6612,
      "ĠTher": 6613,
      "Ġeas": 6614,
      "AMember": 6615,
      "eemable": 6616,
      "reshold": 6617,
      "ĠÎ": 6618,
      "isa": 6619,
      "215": 6620,
      "aces": 6621,
      "Gener": 6622,
      "Significant": 6623,
      "BO": 6624,
      "ĠTransactions": 6625,
      "collectively": 6626,
      "ĠCom": 6627,
      "vi": 6628,
      "Chief": 6629,
      "Ġplanned": 6630,
      "Ġcrypt": 6631,
      "ĠDec": 6632,
      "utin": 6633,
      "UG": 6634,
      "Ġalready": 6635,
      "Reconciling": 6636,
      "ĠÏ": 6637,
      "AgreementMember": 6638,
      "Plant": 6639,
      "262": 6640,
      "Ġconstant": 6641,
      "here": 6642,
      "2012": 6643,
      "ĠLitigation": 6644,
      "edged": 6645,
      "Ġlab": 6646,
      "Ġbecomes": 6647,
      "Ġupdated": 6648,
      "Ġbond": 6649,
      "ĠUs": 6650,
      "Administrative": 6651,
      "Ġclean": 6652,
      "Ġvolunt": 6653,
      "AA": 6654,
      "Up": 6655,
      "Ġste": 6656,
      "AverageMember": 6657,
      "286": 6658,
      "Ġsummarized": 6659,
      "Ġx": 6660,
      "Ġneeded": 6661,
      "Ġwithhold": 6662,
      "orrowings": 6663,
      "ĠIllinois": 6664,
      "ciences": 6665,
      "Ġdisputes": 6666,
      "Ġeconomy": 6667,
      "Ġmethodology": 6668,
      "OTHER": 6669,
      "Ġtransfers": 6670,
      "Ġimmaterial": 6671,
      "Ġplaintiffs": 6672,
      "Americas": 6673,
      "Ġperiodically": 6674,
      "0000049196": 6675,
      "!!": 6676,
      "AG": 6677,
      "ĠCity": 6678,
      "peak": 6679,
      "under": 6680,
      "OtherNoncurrent": 6681,
      "Ġprobability": 6682,
      "ĠMac": 6683,
      "Ġdiverse": 6684,
      "Ġdark": 6685,
      "Ġspot": 6686,
      "Ġstares": 6687,
      "INGS": 6688,
      "FinancialAsset": 6689,
      "Represents": 6690,
      "490": 6691,
      "Ġquarters": 6692,
      "Ġconcerning": 6693,
      "NetInvestmentHedgingMember": 6694,
      "\"),": 6695,
      "Ġi": 6696,
      "ĠASC": 6697,
      "Ġdistributors": 6698,
      "kn": 6699,
      "Ġcalled": 6700,
      "ARY": 6701,
      "385": 6702,
      "Millions": 6703,
      "aims": 6704,
      "Ġaircraft": 6705,
      "ĠShareholders": 6706,
      "Ġdivestitures": 6707,
      "Ġexceeds": 6708,
      "EB": 6709,
      "6704": 6710,
      "0000766704": 6711,
      "Ġinj": 6712,
      "Ġdisrupt": 6713,
      "Ġattempt": 6714,
      "ĠCarol": 6715,
      "Ġdelivered": 6716,
      "fully": 6717,
      "Ġfamily": 6718,
      "CP": 6719,
      "Event": 6720,
      "Ġbenchmark": 6721,
      "Ġpipeline": 6722,
      "ĠLet": 6723,
      "Ġagents": 6724,
      "Ġforms": 6725,
      "ĠEmployee": 6726,
      "ĠComb": 6727,
      "00002004": 6728,
      "0000200406": 6729,
      "Funds": 6730,
      "ete": 6731,
      "Ġpharmaceutical": 6732,
      "ĠPar": 6733,
      "portion": 6734,
      "Ġdou": 6735,
      "Ġlegisl": 6736,
      "745": 6737,
      "ĠVO": 6738,
      "Ġmonthly": 6739,
      "211": 6740,
      "San": 6741,
      "Ġvis": 6742,
      "Ġgrade": 6743,
      "eopolitical": 6744,
      "Ġshareholder": 6745,
      "Paper": 6746,
      "Ġrecently": 6747,
      "ĠER": 6748,
      "HA": 6749,
      "Ġdispositions": 6750,
      "443": 6751,
      "Ġobtaining": 6752,
      "PerformanceSharesMember": 6753,
      "343": 6754,
      "Ġwarranty": 6755,
      "ĠLLP": 6756,
      "Cross": 6757,
      "209": 6758,
      "ensions": 6759,
      "Ġprospects": 6760,
      "Ġintangibles": 6761,
      "ĠFOR": 6762,
      "Ġmach": 6763,
      "Ġtenants": 6764,
      "than": 6765,
      "elines": 6766,
      "state": 6767,
      "lin": 6768,
      "Exerc": 6769,
      "Ġexcludes": 6770,
      "earing": 6771,
      "Percentage": 6772,
      "Ġwords": 6773,
      "rought": 6774,
      "Grant": 6775,
      "ĠJack": 6776,
      "Ġrepayment": 6777,
      "Ġcommunicated": 6778,
      "Build": 6779,
      "Ġefficient": 6780,
      "Ġnetting": 6781,
      "rown": 6782,
      "ider": 6783,
      "Ġcol": 6784,
      "Ġconvertible": 6785,
      "352": 6786,
      "Ġportfolios": 6787,
      "Ġengineering": 6788,
      "luded": 6789,
      "465": 6790,
      "BondsMember": 6791,
      "ashington": 6792,
      "Transferred": 6793,
      "Ġintend": 6794,
      "Ġprincipally": 6795,
      "Return": 6796,
      "Ġcoming": 6797,
      "ricing": 6798,
      "ĠED": 6799,
      "ĠProceedings": 6800,
      "Ġpersons": 6801,
      "218": 6802,
      "Ġpop": 6803,
      "ĠPCAOB": 6804,
      "Ġcatastrop": 6805,
      "Ġthreshold": 6806,
      "Ġterror": 6807,
      "ASS": 6808,
      "ĠFinancing": 6809,
      "00008954": 6810,
      "0000895421": 6811,
      "Inline": 6812,
      "ĠSHOT": 6813,
      "097": 6814,
      "ĠAmounts": 6815,
      "Money": 6816,
      "Ġwar": 6817,
      "ĠBanking": 6818,
      "Filed": 6819,
      "Ġleave": 6820,
      "Basis": 6821,
      "Ġcomputer": 6822,
      "Ġglobally": 6823,
      "Ġgives": 6824,
      "216": 6825,
      "aine": 6826,
      "ĠLouisiana": 6827,
      "ĠCAM": 6828,
      "425": 6829,
      "wr": 6830,
      "ĠEnt": 6831,
      "Ġblack": 6832,
      "TEN": 6833,
      "Ġimpaired": 6834,
      "ominion": 6835,
      "ĠPUR": 6836,
      "Ġgeograph": 6837,
      "ĠNetwork": 6838,
      "EE": 6839,
      "Trad": 6840,
      "Ġwhose": 6841,
      "Shortd": 6842,
      "Ġvested": 6843,
      "Ġmanagers": 6844,
      "Ġdefense": 6845,
      "enew": 6846,
      "ĠPursuant": 6847,
      "ĠPrincipal": 6848,
      "Ġexit": 6849,
      "ites": 6850,
      "inally": 6851,
      "ĠINCOME": 6852,
      "ARK": 6853,
      "Partnership": 6854,
      "AssetBackedSecuritiesMember": 6855,
      "Ġaccident": 6856,
      "ĠAbb": 6857,
      "wec": 6858,
      "Ġconsisting": 6859,
      "Ġthought": 6860,
      "Ġservicing": 6861,
      "ĠWH": 6862,
      "Ġusage": 6863,
      "Ġspeak": 6864,
      "213": 6865,
      "ville": 6866,
      "Ġplants": 6867,
      "508": 6868,
      "ĠLA": 6869,
      "Issuance": 6870,
      "ProductsMember": 6871,
      "INC": 6872,
      "ĠSafety": 6873,
      "Ġbegins": 6874,
      "214": 6875,
      "Ġlove": 6876,
      "Ġaccruals": 6877,
      "Beginning": 6878,
      "ACE": 6879,
      "ĠLinkbase": 6880,
      "Ġbott": 6881,
      "228": 6882,
      "748": 6883,
      "Ġstorm": 6884,
      "Ġsquare": 6885,
      "Ġseen": 6886,
      "ĠTwo": 6887,
      "ĠKingdom": 6888,
      "WeightedAverageMember": 6889,
      "Ġshot": 6890,
      "245": 6891,
      "Ġstaff": 6892,
      "Ġglass": 6893,
      "Ġreducing": 6894,
      "ShortdurationInsuranceContractsAccidentYear": 6895,
      "VIE": 6896,
      "Ġ2009": 6897,
      "emiconductor": 6898,
      "spg": 6899,
      "ĠGR": 6900,
      "nsel": 6901,
      "ux": 6902,
      "anticip": 6903,
      "Ġinnovation": 6904,
      "Medical": 6905,
      "Ġstake": 6906,
      "Ġenforce": 6907,
      "roach": 6908,
      "ado": 6909,
      "inct": 6910,
      "235": 6911,
      "Ġtraditional": 6912,
      "Ġputs": 6913,
      "ask": 6914,
      "Ġdeterior": 6915,
      "Ġconsequences": 6916,
      "ifth": 6917,
      "0000875": 6918,
      "Ġplaced": 6919,
      "Ġpermit": 6920,
      "Ġonto": 6921,
      "708": 6922,
      "tra": 6923,
      "Ġunderstand": 6924,
      "ĠOption": 6925,
      "Ġshows": 6926,
      "223": 6927,
      "Payments": 6928,
      "Care": 6929,
      "Ġwithdraw": 6930,
      "Le": 6931,
      "7599": 6932,
      "00007599": 6933,
      "302": 6934,
      "0000759944": 6935,
      "Ġchild": 6936,
      "Ġscale": 6937,
      "\").": 6938,
      "ĠDigital": 6939,
      "ĠIndependent": 6940,
      "219": 6941,
      "Ġ2031": 6942,
      "741": 6943,
      "erosp": 6944,
      "Ġhardware": 6945,
      "00009159": 6946,
      "Ġsch": 6947,
      "PER": 6948,
      "Ġrenewal": 6949,
      "inery": 6950,
      "empr": 6951,
      "ĠACCO": 6952,
      "Ġparticipate": 6953,
      "0000036270": 6954,
      "238": 6955,
      "231": 6956,
      "ĠThird": 6957,
      "Mar": 6958,
      "ailure": 6959,
      "ĠPresent": 6960,
      "ze": 6961,
      "lnt": 6962,
      "EmployeeStockOptionMember": 6963,
      "Ġidentical": 6964,
      "Ġnames": 6965,
      "0000879101": 6966,
      "Ġhost": 6967,
      "269": 6968,
      "Ġutilities": 6969,
      "Ġparticipating": 6970,
      "ĠPacific": 6971,
      "0000906": 6972,
      "Ġrestaur": 6973,
      "EventMember": 6974,
      "Ġproductivity": 6975,
      "568": 6976,
      "CommercialPaper": 6977,
      "rual": 6978,
      "442": 6979,
      "asters": 6980,
      "segment": 6981,
      "EquitySecurities": 6982,
      "rj": 6983,
      "ĠContracts": 6984,
      "Ġconcentr": 6985,
      "URE": 6986,
      "aving": 6987,
      "Ġpromot": 6988,
      "Ġsupplemental": 6989,
      "ĠSm": 6990,
      "erospace": 6991,
      "Develop": 6992,
      "encement": 6993,
      "039": 6994,
      "dis": 6995,
      "ĠGovernment": 6996,
      "merging": 6997,
      "Payment": 6998,
      "760": 6999,
      "Ġreviewed": 7000,
      "pat": 7001,
      "TO": 7002,
      "ĠTransaction": 7003,
      "Oper": 7004,
      "Ġkind": 7005,
      "aints": 7006,
      "ĠFASB": 7007,
      "ReconcilingItem": 7008,
      "236": 7009,
      "period": 7010,
      "234": 7011,
      "Ġunaudited": 7012,
      "696": 7013,
      "sm": 7014,
      "Ġreaches": 7015,
      "ĠFlow": 7016,
      "gp": 7017,
      "ĠAustral": 7018,
      "0000899": 7019,
      "Attributable": 7020,
      "0000899051": 7021,
      "ebentures": 7022,
      "Ġblock": 7023,
      "aker": 7024,
      "Cover": 7025,
      "Ġill": 7026,
      "Ġredeemable": 7027,
      "Ġnoncurrent": 7028,
      "abama": 7029,
      "227": 7030,
      "373": 7031,
      "229": 7032,
      "rjf": 7033,
      "Ġproc": 7034,
      "located": 7035,
      "ĠProcedures": 7036,
      "ĠBlackstone": 7037,
      "AGEMENT": 7038,
      "Outstanding": 7039,
      "Above": 7040,
      "Small": 7041,
      "Ġdevice": 7042,
      "denominated": 7043,
      "Ġgeopolitical": 7044,
      "Ġcharacteristics": 7045,
      "icro": 7046,
      "Ġtrying": 7047,
      "Ġundert": 7048,
      "Portion": 7049,
      "Amended": 7050,
      "Ġbur": 7051,
      "ores": 7052,
      "Ġclasses": 7053,
      "Ġoffered": 7054,
      "Di": 7055,
      "494": 7056,
      "Ġser": 7057,
      "ĠHey": 7058,
      "ilest": 7059,
      "None": 7060,
      "SubsequentEventMember": 7061,
      "GasAnd": 7062,
      "Ġdescript": 7063,
      "249": 7064,
      "243": 7065,
      "ĠDollar": 7066,
      "570": 7067,
      "Ġstress": 7068,
      "Ġsuffer": 7069,
      "ARE": 7070,
      "encing": 7071,
      "673": 7072,
      "loating": 7073,
      "Inventories": 7074,
      "mrk": 7075,
      "Ġask": 7076,
      "ISO": 7077,
      "Ġtechnological": 7078,
      "Ġpatient": 7079,
      "ĠGod": 7080,
      "ĠSummary": 7081,
      "Improvements": 7082,
      "MM": 7083,
      "vistra": 7084,
      "anche": 7085,
      "Ġchanged": 7086,
      "Ġidentifiable": 7087,
      "0000310158": 7088,
      "Ġindemnification": 7089,
      "790": 7090,
      "Ġheav": 7091,
      "Ġgrabs": 7092,
      "Ġretention": 7093,
      "Ġchief": 7094,
      "TON": 7095,
      "Work": 7096,
      "Ġrecognizes": 7097,
      "RegulatedMember": 7098,
      "Ġdivestiture": 7099,
      "Title": 7100,
      "Refer": 7101,
      "Ġtrademarks": 7102,
      "divisions": 7103,
      "PublicService": 7104,
      "653": 7105,
      "252": 7106,
      "ĠChar": 7107,
      "ĠDisclosure": 7108,
      "ĠOp": 7109,
      "Ġconsidering": 7110,
      "Ġowners": 7111,
      "argo": 7112,
      "ĠThree": 7113,
      "ucky": 7114,
      "248": 7115,
      "Ġinvestigation": 7116,
      "ĠPat": 7117,
      "ĠâĪ": 7118,
      "Ġanything": 7119,
      "Ġuns": 7120,
      "roximately": 7121,
      "ĠÂ¼": 7122,
      "Ġoccurrence": 7123,
      "ĠEdison": 7124,
      "ĠAir": 7125,
      "ĠPolicy": 7126,
      "DiscountedCashFlow": 7127,
      "ruptcy": 7128,
      "233": 7129,
      "ubb": 7130,
      "2230": 7131,
      "00000405": 7132,
      "brka": 7133,
      "ĠEuro": 7134,
      "ĠPort": 7135,
      "Ġwatches": 7136,
      "1761": 7137,
      "Ġsubscription": 7138,
      "0000092230": 7139,
      "0001281761": 7140,
      "ServicesSegmentMember": 7141,
      "Ġ2008": 7142,
      "UND": 7143,
      "Ext": 7144,
      "00000914": 7145,
      "USTreasuryAnd": 7146,
      "Ġorganic": 7147,
      "20005": 7148,
      "0000720005": 7149,
      "Ġsmaller": 7150,
      "THER": 7151,
      "Amendment": 7152,
      "Ġtotaling": 7153,
      "Ġroyalty": 7154,
      "ĠÂłčĊ": 7155,
      "Ġruns": 7156,
      "Ġï¬ģ": 7157,
      "ĠSpecial": 7158,
      "Ġpressures": 7159,
      "eterm": 7160,
      "ĠFunds": 7161,
      "inger": 7162,
      "empra": 7163,
      "Nonrec": 7164,
      "Ġbox": 7165,
      "Ġfilings": 7166,
      "325": 7167,
      "ĠCard": 7168,
      "Ġmaster": 7169,
      "USTreasuryAndGovernmentMember": 7170,
      "Ġdilutive": 7171,
      "ĠSL": 7172,
      "Ġcho": 7173,
      "246": 7174,
      "AttributableTo": 7175,
      "Ġexecution": 7176,
      "ĠMedicaid": 7177,
      "years": 7178,
      "ynn": 7179,
      "vo": 7180,
      "ĠRepurchase": 7181,
      "ĠOPERATIONS": 7182,
      "CommonClass": 7183,
      "cquired": 7184,
      "Ġfield": 7185,
      "Ġadopt": 7186,
      "253": 7187,
      "Ġdistributed": 7188,
      "ĠQU": 7189,
      "Ġvs": 7190,
      "ĠRisks": 7191,
      "ifies": 7192,
      "ĠAEP": 7193,
      "Ġextensive": 7194,
      "Ġgrowing": 7195,
      "ĠMexico": 7196,
      "Ġfacts": 7197,
      "BL": 7198,
      "Geographic": 7199,
      "IND": 7200,
      "antly": 7201,
      "HS": 7202,
      "1788": 7203,
      "ĠMissouri": 7204,
      "Options": 7205,
      "Ġremeasure": 7206,
      "517": 7207,
      "Ġlost": 7208,
      "elihood": 7209,
      "ledge": 7210,
      "608": 7211,
      "Ġoperated": 7212,
      "ĠACCOUNT": 7213,
      "TimeMember": 7214,
      "Litigation": 7215,
      "401": 7216,
      "Ġshut": 7217,
      "Miss": 7218,
      "lr": 7219,
      "ipping": 7220,
      "264": 7221,
      "oust": 7222,
      "pply": 7223,
      "ANK": 7224,
      "NC": 7225,
      "Ġfloating": 7226,
      "Future": 7227,
      "igan": 7228,
      "osed": 7229,
      "System": 7230,
      "265": 7231,
      "Ġmedia": 7232,
      "ĠEM": 7233,
      "ouncements": 7234,
      "ĠFurthermore": 7235,
      "kansas": 7236,
      "Ġnods": 7237,
      "Ġwhy": 7238,
      "ĠCP": 7239,
      "face": 7240,
      "eness": 7241,
      "670": 7242,
      "770": 7243,
      "arry": 7244,
      "ender": 7245,
      "Rating": 7246,
      "Ġlif": 7247,
      "Ġreadily": 7248,
      "Exp": 7249,
      "3325": 7250,
      "Ġmovements": 7251,
      "AEP": 7252,
      "Seven": 7253,
      "contract": 7254,
      "0000031": 7255,
      "Ġcollected": 7256,
      "581": 7257,
      "Ġenhanced": 7258,
      "0000783325": 7259,
      "255": 7260,
      "Risks": 7261,
      "Ġwon": 7262,
      "Ġcontributed": 7263,
      "Ġlate": 7264,
      "Ġstanding": 7265,
      "ĠMaster": 7266,
      "Ġmisst": 7267,
      "Ġrather": 7268,
      "ĠIV": 7269,
      "Ġexpose": 7270,
      "Ġexpert": 7271,
      "Ġoccurs": 7272,
      "Ġstreet": 7273,
      "SA": 7274,
      "Texas": 7275,
      "leep": 7276,
      "Standard": 7277,
      "Ġaspects": 7278,
      "Ġmeasurements": 7279,
      "ĠWho": 7280,
      "798": 7281,
      "ĠMich": 7282,
      "Ġwaste": 7283,
      "ĠFacilities": 7284,
      "cons": 7285,
      "mbol": 7286,
      "pay": 7287,
      "Ġcandid": 7288,
      "ĠOf": 7289,
      "Second": 7290,
      "ForwardMember": 7291,
      "OLL": 7292,
      "247": 7293,
      "ynam": 7294,
      "ShortTerm": 7295,
      "OK": 7296,
      "oph": 7297,
      "ĠAmount": 7298,
      "Ġcopy": 7299,
      "my": 7300,
      "inuing": 7301,
      "ĠCor": 7302,
      "Ġdut": 7303,
      "682": 7304,
      "Ġcarbon": 7305,
      "Ġmid": 7306,
      "290": 7307,
      "0000874761": 7308,
      "AssetManagement": 7309,
      "ĠRed": 7310,
      "Costs": 7311,
      "Ġsatisfied": 7312,
      "Ġfulfill": 7313,
      "pecially": 7314,
      "ĠCommitments": 7315,
      "850": 7316,
      "viously": 7317,
      "ĠEstimates": 7318,
      "901": 7319,
      "ĠCorp": 7320,
      "Ġmodifications": 7321,
      "RelatedPartyMember": 7322,
      "Ġgenerating": 7323,
      "WAY": 7324,
      "CustomerMember": 7325,
      "Ġbegan": 7326,
      "ĠNE": 7327,
      "Ġuser": 7328,
      "ĠLease": 7329,
      "273": 7330,
      "DR": 7331,
      "251": 7332,
      "AndP": 7333,
      "Wholesale": 7334,
      "Ġdirector": 7335,
      "Casualty": 7336,
      "Ġcrim": 7337,
      "Ġnothing": 7338,
      "la": 7339,
      "Ġviolations": 7340,
      "Ġcommunity": 7341,
      "adjust": 7342,
      "performance": 7343,
      "ertainment": 7344,
      "261": 7345,
      "Ġforfe": 7346,
      "Ġrul": 7347,
      "Ġdisasters": 7348,
      "Ġcards": 7349,
      "0000827": 7350,
      "Ġspreads": 7351,
      "Ġapproaches": 7352,
      "Â©": 7353,
      "Ġcomplying": 7354,
      "Ġtests": 7355,
      "ĠVOICE": 7356,
      "ĠBy": 7357,
      "Ġreserv": 7358,
      "Ġed": 7359,
      "Ġengaged": 7360,
      "Ġborrower": 7361,
      "Ġinfringement": 7362,
      "Severance": 7363,
      "Ġlikelihood": 7364,
      "gains": 7365,
      "Registrant": 7366,
      "Ġroll": 7367,
      "ĠGood": 7368,
      "Mult": 7369,
      "from": 7370,
      "Ġ500": 7371,
      "ĠJo": 7372,
      "725": 7373,
      "Ġalmost": 7374,
      "Ġindicators": 7375,
      "Ġdrink": 7376,
      "Op": 7377,
      "ulations": 7378,
      "Ġdro": 7379,
      "ĠUnion": 7380,
      "Ġshall": 7381,
      "Ġcalculate": 7382,
      "Decrease": 7383,
      "Ġbrought": 7384,
      "Ġled": 7385,
      "Accounting": 7386,
      "Ġsafe": 7387,
      "Ġbear": 7388,
      "ung": 7389,
      "IDE": 7390,
      "ouston": 7391,
      "alc": 7392,
      "Ġdeclines": 7393,
      "ari": 7394,
      "ength": 7395,
      "Ġsubsequently": 7396,
      "ĠAfter": 7397,
      "Ġtrack": 7398,
      "EMEA": 7399,
      "Ġterminate": 7400,
      "Infrastructure": 7401,
      "000126": 7402,
      "Ġlegislative": 7403,
      "ORE": 7404,
      "nterprise": 7405,
      "ĠRussia": 7406,
      "pnc": 7407,
      "ĠLIBOR": 7408,
      "Condensed": 7409,
      "766": 7410,
      "GLE": 7411,
      "Ġaccrual": 7412,
      "Ġtrig": 7413,
      "Ġengagement": 7414,
      "such": 7415,
      "GreaterThan": 7416,
      "256": 7417,
      "ĠCurrency": 7418,
      "ĠBEN": 7419,
      "mitted": 7420,
      "rica": 7421,
      "AK": 7422,
      "undred": 7423,
      "Ġmaintains": 7424,
      "Ġbeat": 7425,
      "She": 7426,
      "ĠSy": 7427,
      "DerivativeMember": 7428,
      "Ġcommittee": 7429,
      "ĠPH": 7430,
      "Ġdocuments": 7431,
      "uish": 7432,
      "257": 7433,
      "elves": 7434,
      "ilt": 7435,
      "acgl": 7436,
      "antitative": 7437,
      "ushes": 7438,
      "547": 7439,
      "AF": 7440,
      "Ġguy": 7441,
      "Ġbehavior": 7442,
      "ĠAgreements": 7443,
      "ĠMeasurements": 7444,
      "ĠFiscal": 7445,
      "ique": 7446,
      "anufacturing": 7447,
      "iga": 7448,
      "605": 7449,
      "SubsidiariesMember": 7450,
      "ĠObligations": 7451,
      "ITAL": 7452,
      "ĠCMS": 7453,
      "ĠOhio": 7454,
      "Ġconcerns": 7455,
      "Ġinventories": 7456,
      "768": 7457,
      "Bro": 7458,
      "Reduct": 7459,
      "ounds": 7460,
      "UsRegulatedMember": 7461,
      "ĠSTE": 7462,
      "Br": 7463,
      "Rem": 7464,
      "Ġsector": 7465,
      "IZ": 7466,
      "ĠCertificate": 7467,
      "ĠSam": 7468,
      "578": 7469,
      "Ġvoice": 7470,
      "andise": 7471,
      "anks": 7472,
      "ĠTV": 7473,
      "Ġbrok": 7474,
      "Ġupdates": 7475,
      "7484": 7476,
      "Ġsatisfact": 7477,
      "Ġimproved": 7478,
      "0000947484": 7479,
      "336": 7480,
      "Ġaccurately": 7481,
      "cost": 7482,
      "VariableInterestEntityPrimaryBeneficiaryMember": 7483,
      "301": 7484,
      "Ġdest": 7485,
      "ĠGRO": 7486,
      "ĠIP": 7487,
      "ĠCol": 7488,
      "Ġelev": 7489,
      "ĠSCE": 7490,
      "def": 7491,
      "ground": 7492,
      "ĠHE": 7493,
      "Ġnor": 7494,
      "Ġfailures": 7495,
      "ĠIntangible": 7496,
      "298": 7497,
      "INS": 7498,
      "Ġadvances": 7499,
      "OU": 7500,
      "cn": 7501,
      "ĠAccount": 7502,
      "288": 7503,
      "Ġwithholding": 7504,
      "469": 7505,
      "Ġmerger": 7506,
      "ĠAverage": 7507,
      "has": 7508,
      "Ġinstitution": 7509,
      "Deposits": 7510,
      "Ġforecasts": 7511,
      "Ġanalyt": 7512,
      "band": 7513,
      "8230": 7514,
      "289": 7515,
      "ford": 7516,
      "PH": 7517,
      "0000018230": 7518,
      "Ġexpanded": 7519,
      "shire": 7520,
      "HG": 7521,
      "294": 7522,
      "ologies": 7523,
      "Cons": 7524,
      "0000036104": 7525,
      "ĠMer": 7526,
      "000082031": 7527,
      "AccumulatedNetUnrealized": 7528,
      "rows": 7529,
      "eva": 7530,
      "odd": 7531,
      "271": 7532,
      "791": 7533,
      "oly": 7534,
      "Liquidity": 7535,
      "ector": 7536,
      "Ġtruck": 7537,
      "297": 7538,
      "Ġinclusive": 7539,
      "Ġchapter": 7540,
      "Ġhaz": 7541,
      "Ġstep": 7542,
      "Ġelectronic": 7543,
      "OOD": 7544,
      "ĠBas": 7545,
      "level": 7546,
      "Progress": 7547,
      "2819": 7548,
      "itivity": 7549,
      "0001692819": 7550,
      "268": 7551,
      "Ġexercised": 7552,
      "sub": 7553,
      "AndAdministrative": 7554,
      "ested": 7555,
      "sidiary": 7556,
      "Ġlot": 7557,
      "Ġintent": 7558,
      "ĠFORM": 7559,
      "Ġvalid": 7560,
      "Ġbudg": 7561,
      "Ġrecomm": 7562,
      "ĠDi": 7563,
      "cient": 7564,
      "cs": 7565,
      "283": 7566,
      "323": 7567,
      "950": 7568,
      "lorida": 7569,
      "TI": 7570,
      "Ġeconom": 7571,
      "Ġsem": 7572,
      "ForeignExchangeForwardMember": 7573,
      "ĠLook": 7574,
      "cnp": 7575,
      "Ġenough": 7576,
      "Ġearlier": 7577,
      "703": 7578,
      "ĠCirc": 7579,
      "ĠHel": 7580,
      "PolicyholderAccountBalanceAbove": 7581,
      "da": 7582,
      "CostOfSalesMember": 7583,
      "ags": 7584,
      "Ġutilization": 7585,
      "Ġformula": 7586,
      "Ġdistinct": 7587,
      "315": 7588,
      "ITH": 7589,
      "Ġfactor": 7590,
      "Ġdecommissioning": 7591,
      "Ġsecuritization": 7592,
      "igure": 7593,
      "Ġeffort": 7594,
      "prises": 7595,
      "Ġansw": 7596,
      "rical": 7597,
      "gacy": 7598,
      "ĠSched": 7599,
      "291": 7600,
      "ĠCFR": 7601,
      "349": 7602,
      "ersey": 7603,
      "Ġchannel": 7604,
      "known": 7605,
      "Ġround": 7606,
      "Ġwoman": 7607,
      "unior": 7608,
      "ĠAnn": 7609,
      "Ġfrequently": 7610,
      "Ġexclusive": 7611,
      "Markets": 7612,
      "308": 7613,
      "ertificates": 7614,
      "ĠEv": 7615,
      "303": 7616,
      "Ġdescription": 7617,
      "071": 7618,
      "Ġexecute": 7619,
      "Ġestablishing": 7620,
      "ĠLE": 7621,
      "ÂłÂłÂłÂłÂłÂłÂłÂłčĊ": 7622,
      "âĹ¦": 7623,
      "END": 7624,
      "Ġdeep": 7625,
      "ĠINTER": 7626,
      "SalesRevenue": 7627,
      "Ġfar": 7628,
      "Ġadministration": 7629,
      "oston": 7630,
      "Ġimprovement": 7631,
      "Ġrecovered": 7632,
      "ĠTrustee": 7633,
      "Ġcriminal": 7634,
      "mtb": 7635,
      "Ġprocure": 7636,
      "ĠAbout": 7637,
      "Ġespecially": 7638,
      "âĸ": 7639,
      "rew": 7640,
      "ellation": 7641,
      "Ġbuildings": 7642,
      "284": 7643,
      "Ġassumption": 7644,
      "00019": 7645,
      "LD": 7646,
      "Ġhomes": 7647,
      "Ġcommodities": 7648,
      "Ġvaluations": 7649,
      "ma": 7650,
      "Ġzero": 7651,
      "Ġdone": 7652,
      "338": 7653,
      "Oil": 7654,
      "Ġdeath": 7655,
      "Ġseverance": 7656,
      "Ġeth": 7657,
      "ValuationTechniqueDiscountedCashFlow": 7658,
      "Ġretire": 7659,
      "five": 7660,
      "Deposit": 7661,
      "ĠWork": 7662,
      "305": 7663,
      "Environmental": 7664,
      "Ġcoal": 7665,
      "ĠCOMPANY": 7666,
      "verse": 7667,
      "ĠAtlantic": 7668,
      "Ġlose": 7669,
      "3751": 7670,
      "rs": 7671,
      "306": 7672,
      "ĠAdministrative": 7673,
      "0000093751": 7674,
      "Ġmeaningful": 7675,
      "TERS": 7676,
      "erk": 7677,
      "ĠBro": 7678,
      "292": 7679,
      "287": 7680,
      "Ġbill": 7681,
      "Ġforce": 7682,
      "712": 7683,
      "Ġaware": 7684,
      "Ġintelligence": 7685,
      "Ġmunicipal": 7686,
      "specific": 7687,
      "gn": 7688,
      "ĠMet": 7689,
      "ears": 7690,
      "Ġ198": 7691,
      "Issued": 7692,
      "ĠGre": 7693,
      "iversity": 7694,
      "0000936340": 7695,
      "Ġreplacement": 7696,
      ")/": 7697,
      "Ġinstances": 7698,
      "Control": 7699,
      "ĠFees": 7700,
      "Oh": 7701,
      "mi": 7702,
      "Ġsettle": 7703,
      "ROOM": 7704,
      "ĠEstate": 7705,
      "319": 7706,
      "Ġdisaggreg": 7707,
      "ĠIRS": 7708,
      "umps": 7709,
      "ForeignGovernment": 7710,
      "Ġfutures": 7711,
      "ĠDistribution": 7712,
      "Ġblood": 7713,
      "314": 7714,
      "ĠMid": 7715,
      "Ġslowly": 7716,
      "ProductMember": 7717,
      "ÂĴ": 7718,
      "Separ": 7719,
      "ĠHer": 7720,
      "Ġmus": 7721,
      "313": 7722,
      "decrease": 7723,
      "CommunitiesMember": 7724,
      "Ġdetailed": 7725,
      "endar": 7726,
      "Critical": 7727,
      "Met": 7728,
      "Ġspeed": 7729,
      "Ã¾": 7730,
      "IntangibleAssetsMember": 7731,
      "iscounted": 7732,
      "ĠCounty": 7733,
      "501": 7734,
      "TermLoan": 7735,
      "Ġquest": 7736,
      "forward": 7737,
      "Ġdesk": 7738,
      "AccumulatedNetUnrealizedInvestment": 7739,
      "ĠUp": 7740,
      "Fuel": 7741,
      "CommercialPaperMember": 7742,
      "ban": 7743,
      "Ġfavor": 7744,
      "NG": 7745,
      "Ġrespects": 7746,
      "ĠPlant": 7747,
      "Ġsupporting": 7748,
      "Ġjob": 7749,
      "Ġroad": 7750,
      "Ġrepay": 7751,
      "ĠIND": 7752,
      "SR": 7753,
      "788": 7754,
      "bxp": 7755,
      "046": 7756,
      "Ġmilest": 7757,
      "326": 7758,
      "Ġhistorically": 7759,
      "Ġage": 7760,
      "Ġhair": 7761,
      "789": 7762,
      "ĠGains": 7763,
      "Ġswe": 7764,
      "339": 7765,
      "691": 7766,
      "317": 7767,
      "astic": 7768,
      "Ġproportion": 7769,
      "Ġmethodologies": 7770,
      "660": 7771,
      "Eliminations": 7772,
      "ĠRules": 7773,
      "ĠJOHN": 7774,
      "airman": 7775,
      "Ġcorrect": 7776,
      "Emerging": 7777,
      "WN": 7778,
      "Ġrad": 7779,
      "performing": 7780,
      "izable": 7781,
      "Ġyoung": 7782,
      "Ġremed": 7783,
      "330": 7784,
      "Virginia": 7785,
      "aR": 7786,
      "avb": 7787,
      "enant": 7788,
      "Ġopportunity": 7789,
      "787": 7790,
      "ULTS": 7791,
      "337": 7792,
      "1143": 7793,
      "ĠSan": 7794,
      "ĠOffice": 7795,
      "Ġknowledge": 7796,
      "Ġcontribute": 7797,
      "322": 7798,
      "000179": 7799,
      "prov": 7800,
      "331": 7801,
      "368": 7802,
      "0000051143": 7803,
      "316": 7804,
      "AccumulatedNetUnrealizedInvestmentGainLossMember": 7805,
      "Ġseparation": 7806,
      "best": 7807,
      "Ġstockholder": 7808,
      "MortgageBackedSecuritiesMember": 7809,
      "option": 7810,
      "309": 7811,
      "Ġflexibility": 7812,
      "ĠTherefore": 7813,
      "ĠFrank": 7814,
      "Ġlarger": 7815,
      "304": 7816,
      "Ġboy": 7817,
      "Ġhyp": 7818,
      "right": 7819,
      "Ġpharm": 7820,
      "ael": 7821,
      "ĠDTE": 7822,
      "ĠCanadian": 7823,
      "Ġinfluence": 7824,
      "ĠPresentation": 7825,
      "Ġranging": 7826,
      "ĠConsumers": 7827,
      "ĠPE": 7828,
      "Ġprivately": 7829,
      "LA": 7830,
      "aturity": 7831,
      "ĠQualitative": 7832,
      "ĠMell": 7833,
      "ried": 7834,
      "ĠTrading": 7835,
      "Reserves": 7836,
      "390": 7837,
      "errit": 7838,
      "00011368": 7839,
      "ĠSHE": 7840,
      "Ġimpacting": 7841,
      "Ġconstraints": 7842,
      "Ġexamination": 7843,
      "ĠForward": 7844,
      "Ġpatterns": 7845,
      "749": 7846,
      "Ġsubmit": 7847,
      "insured": 7848,
      "gricult": 7849,
      "Ġinput": 7850,
      "bservable": 7851,
      "Ġexists": 7852,
      "aes": 7853,
      "Ġinsured": 7854,
      "Ĥ¬": 7855,
      "Ġcapitalization": 7856,
      "Ġremained": 7857,
      "ĠEvery": 7858,
      "Ġtra": 7859,
      "Transaction": 7860,
      "Ġresid": 7861,
      "overed": 7862,
      "Ġselected": 7863,
      "adequ": 7864,
      "Ġachieved": 7865,
      "ulf": 7866,
      "324": 7867,
      "ĠMiddle": 7868,
      "ĠCentral": 7869,
      "Ġhotel": 7870,
      "ReconcilingItemsMember": 7871,
      "cof": 7872,
      "Ġlive": 7873,
      "359": 7874,
      "ĠWater": 7875,
      "ybersecurity": 7876,
      "Ġregistration": 7877,
      "loud": 7878,
      "Ġperman": 7879,
      "Ġwireless": 7880,
      "Ġachievement": 7881,
      "illar": 7882,
      "ĠVer": 7883,
      "atio": 7884,
      "2541": 7885,
      "Ġfeed": 7886,
      "0000352541": 7887,
      "ERA": 7888,
      "che": 7889,
      "PropertiesMember": 7890,
      "Ġconflicts": 7891,
      "BA": 7892,
      "ĠOTHER": 7893,
      "672": 7894,
      "Ġrol": 7895,
      "HOLD": 7896,
      "6709": 7897,
      "0000316709": 7898,
      "Ġacts": 7899,
      "ĠÂłĠÂłĠÂłĠÂłĠÂłĠÂłĠÂłĠÂł": 7900,
      "0000107": 7901,
      "0000107263": 7902,
      "ATH": 7903,
      "Ġinvolves": 7904,
      "ĠUK": 7905,
      "GeneralAndAdministrative": 7906,
      "Ġfrequency": 7907,
      "796": 7908,
      "ada": 7909,
      "ĠUpon": 7910,
      "ĠSECTION": 7911,
      "Ġtrusts": 7912,
      "Â§": 7913,
      "ĠWilli": 7914,
      "accrual": 7915,
      "Ġmature": 7916,
      "Ġchallenging": 7917,
      "ĠIndustr": 7918,
      "Subordinated": 7919,
      "clos": 7920,
      "selves": 7921,
      "unaudited": 7922,
      "Ġaim": 7923,
      "Ġinterpretations": 7924,
      "bi": 7925,
      "Ġsitu": 7926,
      "print": 7927,
      "Ġborrowed": 7928,
      "ĠSecured": 7929,
      "Ġcontinuous": 7930,
      "IO": 7931,
      "InsuranceSegmentMember": 7932,
      "UE": 7933,
      "ĠEquipment": 7934,
      "SalesRevenueNetMember": 7935,
      "Ġherewith": 7936,
      "cor": 7937,
      "stpr": 7938,
      "PolicyholderAccountBalanceAboveGuaranteedMinimumCreditingRateRangeFrom": 7939,
      "370": 7940,
      "ĠMellon": 7941,
      "Ġwhite": 7942,
      "Ġcostly": 7943,
      "Ġindividually": 7944,
      "PC": 7945,
      "Ġche": 7946,
      "that": 7947,
      "ImprovementsMember": 7948,
      "ONY": 7949,
      "382": 7950,
      "Ġcomputed": 7951,
      "Ġcrow": 7952,
      "Thirty": 7953,
      "ĠBAR": 7954,
      "ĠEffect": 7955,
      "Ġlength": 7956,
      "LEY": 7957,
      "sAnd": 7958,
      "332": 7959,
      "acco": 7960,
      "ĠCLOSE": 7961,
      "Ġcollaboration": 7962,
      "Ġexpensed": 7963,
      "avid": 7964,
      "emics": 7965,
      "Den": 7966,
      "066": 7967,
      "Illinois": 7968,
      "Ġ2005": 7969,
      "DefinedBenefitPlanEquitySecurities": 7970,
      "Impairment": 7971,
      "Ġreasons": 7972,
      "fessional": 7973,
      "Ġadvantage": 7974,
      "Ġversus": 7975,
      "OneMember": 7976,
      "DIC": 7977,
      "SecuredDebtMember": 7978,
      "Ġrepaid": 7979,
      "Ġdisclose": 7980,
      "ĠGerm": 7981,
      ")%": 7982,
      "Ġexpressed": 7983,
      "COM": 7984,
      "quir": 7985,
      "Impact": 7986,
      "ĠIndia": 7987,
      "Ġannuity": 7988,
      "wmb": 7989,
      "Ġtelephone": 7990,
      "Employ": 7991,
      "ORD": 7992,
      "Ġletter": 7993,
      "Ġunders": 7994,
      "ĠGU": 7995,
      "eption": 7996,
      "Estimated": 7997,
      "Ġproblems": 7998,
      "Ġmor": 7999,
      "556": 8000,
      "Ġgreen": 8001,
      "ĠDerivatives": 8002,
      "onouncements": 8003,
      "ĠHAR": 8004,
      "arding": 8005,
      "rangements": 8006,
      "Ġpressure": 8007,
      "âĸª": 8008,
      "Ġgame": 8009,
      "Ġacceptance": 8010,
      "tail": 8011,
      "9968": 8012,
      "Ġshift": 8013,
      "stitute": 8014,
      "00019968": 8015,
      "Ġunamortized": 8016,
      "Ġalthough": 8017,
      "Ġpermits": 8018,
      "due": 8019,
      "341": 8020,
      "086": 8021,
      "Ġcrude": 8022,
      "Personal": 8023,
      "ĠEV": 8024,
      "Mich": 8025,
      "orney": 8026,
      "ĠREG": 8027,
      "Ġrecoveries": 8028,
      "Ġmerchant": 8029,
      "Agreements": 8030,
      "Ġproxy": 8031,
      "Ġadvis": 8032,
      "Ġnecessarily": 8033,
      "Ġappoint": 8034,
      "SUANT": 8035,
      "Award": 8036,
      "353": 8037,
      "Ġplease": 8038,
      "High": 8039,
      "lands": 8040,
      "ĠBE": 8041,
      "ĠKey": 8042,
      "968": 8043,
      "ValuationTechniqueDiscountedCashFlowMember": 8044,
      "Ġoffsetting": 8045,
      "Ġcalendar": 8046,
      "fors": 8047,
      "plus": 8048,
      "Ġintr": 8049,
      "ourcing": 8050,
      "Ġrise": 8051,
      "âĢĺ": 8052,
      "Ġ#": 8053,
      "0000320": 8054,
      "Reportable": 8055,
      "0000320335": 8056,
      "Ġ2032": 8057,
      "ĠLegal": 8058,
      "ardous": 8059,
      "Ġpark": 8060,
      "effective": 8061,
      "Ġdifficulties": 8062,
      "Ġproceeding": 8063,
      "ipelines": 8064,
      "Med": 8065,
      "0000927": 8066,
      "Ġrole": 8067,
      "Ġexecuted": 8068,
      "downs": 8069,
      "0001130": 8070,
      "0001130310": 8071,
      "ara": 8072,
      "Ġassigned": 8073,
      "Disposal": 8074,
      "ĠSER": 8075,
      "ena": 8076,
      "Ġtries": 8077,
      "ests": 8078,
      "LineMember": 8079,
      "ĠSince": 8080,
      "000140": 8081,
      "hig": 8082,
      "bestos": 8083,
      "UnitsMember": 8084,
      "oration": 8085,
      "ĠCF": 8086,
      "Ġcompens": 8087,
      "361": 8088,
      "Ġappears": 8089,
      "Ġfiles": 8090,
      "ĠDerivative": 8091,
      "venue": 8092,
      "patient": 8093,
      "point": 8094,
      "Ġsorry": 8095,
      "risk": 8096,
      "344": 8097,
      "Ġclassification": 8098,
      "Ġconstruct": 8099,
      "Ġacceptable": 8100,
      "Ġmerchants": 8101,
      "Ġmouth": 8102,
      "ĠMOR": 8103,
      "ĠAccumulated": 8104,
      "ĠMeeting": 8105,
      "ĠBrit": 8106,
      "Ġprec": 8107,
      "Ġsecret": 8108,
      "ĠLeases": 8109,
      "Ġmar": 8110,
      "Included": 8111,
      "maa": 8112,
      "Ġcatch": 8113,
      "MI": 8114,
      "Ġrapidly": 8115,
      "342": 8116,
      "ĠOFF": 8117,
      "flows": 8118,
      "363": 8119,
      "bt": 8120,
      "951": 8121,
      "0001751788": 8122,
      "ĠMAT": 8123,
      "pc": 8124,
      "358": 8125,
      "ĠWorld": 8126,
      "Ġexting": 8127,
      "ĠStockholder": 8128,
      "Utility": 8129,
      "onsored": 8130,
      "Ġready": 8131,
      "Ġtransl": 8132,
      "Ġincorporation": 8133,
      "Ġpurchasing": 8134,
      "Ġinnovative": 8135,
      "Ġinclusion": 8136,
      "Ġseverity": 8137,
      "Ġpublished": 8138,
      "362": 8139,
      "ĠMortgage": 8140,
      "ĠANGLE": 8141,
      "empt": 8142,
      "ĠElect": 8143,
      "348": 8144,
      "ĠESG": 8145,
      "Ġinception": 8146,
      "6948": 8147,
      "urationInsuranceContractAccidentYear": 8148,
      "ShortDurationInsuranceContractAccidentYear": 8149,
      "iding": 8150,
      "ĠAdditional": 8151,
      "bank": 8152,
      "7540": 8153,
      "Ġevaluates": 8154,
      "uci": 8155,
      "0001176948": 8156,
      "urringMember": 8157,
      "384": 8158,
      "Ġexpertise": 8159,
      "expected": 8160,
      "367": 8161,
      "0001037540": 8162,
      "Ġtalking": 8163,
      "ĠControls": 8164,
      "Ġweek": 8165,
      "Ġshortages": 8166,
      "Ġerr": 8167,
      "Ġlicensed": 8168,
      "forsale": 8169,
      "Ġextre": 8170,
      "430": 8171,
      "499": 8172,
      "Ġyields": 8173,
      "itigroup": 8174,
      "387": 8175,
      "Ġlands": 8176,
      "ĠPartners": 8177,
      "Agencies": 8178,
      "iec": 8179,
      "ĠAmortization": 8180,
      "Ġraise": 8181,
      "ĠWILL": 8182,
      "Ġtested": 8183,
      "351": 8184,
      "329": 8185,
      "620": 8186,
      "054": 8187,
      "Mid": 8188,
      "ĠPark": 8189,
      "ĠIS": 8190,
      "Ġtaxing": 8191,
      "ĠAG": 8192,
      "ĠLATER": 8193,
      "Ġmoving": 8194,
      "ny": 8195,
      "location": 8196,
      "adjusted": 8197,
      "Ġleasing": 8198,
      "dte": 8199,
      "ĠProperties": 8200,
      "Ġpick": 8201,
      "cat": 8202,
      "9800": 8203,
      "zz": 8204,
      "Ġreleased": 8205,
      "bearing": 8206,
      "Ġextension": 8207,
      "Ġnegotiated": 8208,
      "Ġthereafter": 8209,
      "ĠCAP": 8210,
      "water": 8211,
      "Ġgetting": 8212,
      "ĠNGL": 8213,
      "GB": 8214,
      "ĠANN": 8215,
      "gm": 8216,
      "Ġretrospect": 8217,
      "ĠAccounts": 8218,
      "475": 8219,
      "cms": 8220,
      "alone": 8221,
      "ĠAmericas": 8222,
      "Leases": 8223,
      "orne": 8224,
      "dlr": 8225,
      "8784": 8226,
      "0000788784": 8227,
      "Â¨": 8228,
      "ationally": 8229,
      "ĠOkay": 8230,
      "801": 8231,
      "Ġconfidence": 8232,
      "NonrecurringMember": 8233,
      "AST": 8234,
      "ĠCircuit": 8235,
      "MO": 8236,
      "ĠCHARL": 8237,
      "366": 8238,
      "Ġresource": 8239,
      "atings": 8240,
      "403": 8241,
      "Ġsolution": 8242,
      "omain": 8243,
      "Ġwithheld": 8244,
      "ĠGHG": 8245,
      "Louis": 8246,
      "Ġowns": 8247,
      "Lines": 8248,
      "Ġadvisory": 8249,
      "Ġgaming": 8250,
      "ao": 8251,
      "Ġredeemed": 8252,
      "CUS": 8253,
      "381": 8254,
      "Ġdetermin": 8255,
      "0000732717": 8256,
      "Ġutilizing": 8257,
      "ĠPrivate": 8258,
      "Ġcert": 8259,
      "Ġpercentages": 8260,
      "000010": 8261,
      "495": 8262,
      "ĠJersey": 8263,
      "Ġeliminated": 8264,
      "Corp": 8265,
      "ĠRealty": 8266,
      "----------------": 8267,
      "aby": 8268,
      "ĠMary": 8269,
      "ĠMR": 8270,
      "Corporation": 8271,
      "408": 8272,
      "afl": 8273,
      "pcg": 8274,
      "Ġsuddenly": 8275,
      "Ġcamp": 8276,
      "Ġsupported": 8277,
      "Ġunique": 8278,
      "441": 8279,
      "inf": 8280,
      "ĠEnd": 8281,
      "Marketing": 8282,
      "ĠPURSUANT": 8283,
      "410": 8284,
      "404": 8285,
      "illy": 8286,
      "Ġpursue": 8287,
      "yle": 8288,
      "Ġ40": 8289,
      "048": 8290,
      "emb": 8291,
      "Banking": 8292,
      "ForSale": 8293,
      "4980": 8294,
      "ĠPP": 8295,
      "Universal": 8296,
      "0001004980": 8297,
      "Ġbeneficiary": 8298,
      "Ġworkers": 8299,
      "dx": 8300,
      "elon": 8301,
      "Ġcreated": 8302,
      "athering": 8303,
      "Ġways": 8304,
      "ĠCustomers": 8305,
      "Ġallowed": 8306,
      "Ġsustained": 8307,
      "Nuclear": 8308,
      "440": 8309,
      "Ġsays": 8310,
      "eix": 8311,
      "Ġcomplexity": 8312,
      "ĠACCOUNTING": 8313,
      "7983": 8314,
      "0001067983": 8315,
      "itz": 8316,
      "ilitary": 8317,
      "ĠInline": 8318,
      "alm": 8319,
      "NotesPayable": 8320,
      "FixedRate": 8321,
      "Ġinitially": 8322,
      "ĠBraz": 8323,
      "Central": 8324,
      "Ġinadequ": 8325,
      "Ġproduced": 8326,
      "Elect": 8327,
      "420": 8328,
      "ĠHome": 8329,
      "ĠPSUs": 8330,
      "ĠHuman": 8331,
      "Ġcut": 8332,
      "Ġalone": 8333,
      "Latin": 8334,
      "Can": 8335,
      "itude": 8336,
      "Ġallocate": 8337,
      "onus": 8338,
      "Ġborrowers": 8339,
      "DiscontinuedOperationsMember": 8340,
      "372": 8341,
      "6740": 8342,
      "EuropeMember": 8343,
      "0000066740": 8344,
      "378": 8345,
      "BusinessMember": 8346,
      "Ġpackaging": 8347,
      "Ġfacilitate": 8348,
      "Ġmother": 8349,
      "Mutual": 8350,
      "imal": 8351,
      "ONE": 8352,
      "TwoMember": 8353,
      "Ġbankruptcy": 8354,
      "ĠCONTINU": 8355,
      "ĠDA": 8356,
      "HC": 8357,
      "uities": 8358,
      "value": 8359,
      "ĠCEO": 8360,
      "Ġlack": 8361,
      "duction": 8362,
      "Ġsoon": 8363,
      "Ġfather": 8364,
      "ortgages": 8365,
      "AttributableToNoncontrollingInterestMember": 8366,
      "levision": 8367,
      "Ġterrit": 8368,
      "ĠCA": 8369,
      "ĠMississippi": 8370,
      "recurring": 8371,
      "0001601": 8372,
      "ETH": 8373,
      "Method": 8374,
      "contin": 8375,
      "chw": 8376,
      "Ġpractice": 8377,
      "Annuity": 8378,
      "OND": 8379,
      "olat": 8380,
      "377": 8381,
      "388": 8382,
      "Ġdetermines": 8383,
      "annel": 8384,
      "ideo": 8385,
      "680": 8386,
      "Ġrepl": 8387,
      "ĠVisa": 8388,
      "406": 8389,
      "entucky": 8390,
      "Ġ2006": 8391,
      "00009205": 8392,
      "0000920522": 8393,
      "ResidentialMortgageMember": 8394,
      "AsiaPacific": 8395,
      "Ġwatching": 8396,
      "ondon": 8397,
      "AllowanceFor": 8398,
      "Ġindicative": 8399,
      "Ġschedule": 8400,
      "ForeignGovernmentDebtSecuritiesMember": 8401,
      "odies": 8402,
      "Ġestimating": 8403,
      "Ġimplementing": 8404,
      "ĠIssuer": 8405,
      "386": 8406,
      "695": 8407,
      "ota": 8408,
      "ĠPrograms": 8409,
      "Relationship": 8410,
      "Ġspecifically": 8411,
      "Ġunfunded": 8412,
      "Rule": 8413,
      "BY": 8414,
      "050": 8415,
      "AllOther": 8416,
      "ĠRIS": 8417,
      "Ġhor": 8418,
      "ĠBACK": 8419,
      "498": 8420,
      "Ġfle": 8421,
      "ffiliates": 8422,
      "Ġproper": 8423,
      "480": 8424,
      "Ġperceived": 8425,
      "Ġbreath": 8426,
      "ENCE": 8427,
      "415": 8428,
      "ĠChrist": 8429,
      "Ġmultip": 8430,
      "ĠGoodwill": 8431,
      "FeesMember": 8432,
      "ollowing": 8433,
      "ĠReceivables": 8434,
      "ĠCASH": 8435,
      "ropri": 8436,
      "Ġbps": 8437,
      "Ġexperiences": 8438,
      "Ġmanager": 8439,
      "Ġmutual": 8440,
      "371": 8441,
      "Ġactively": 8442,
      "ror": 8443,
      "Ġfluctuate": 8444,
      "Ġelectronically": 8445,
      "ĠThose": 8446,
      "Ġlimitation": 8447,
      "Ġgoal": 8448,
      "NM": 8449,
      "val": 8450,
      "396": 8451,
      "light": 8452,
      "Ġapartment": 8453,
      "ĠMember": 8454,
      "utr": 8455,
      "ĠFuture": 8456,
      "FairValueMeasurementsNonrecurringMember": 8457,
      "RevenuesMember": 8458,
      "Ġfairly": 8459,
      "Ġcomputing": 8460,
      "Ġproblem": 8461,
      "Ġguidelines": 8462,
      "ession": 8463,
      "Ġintegrate": 8464,
      "Euro": 8465,
      "Ġmind": 8466,
      "497": 8467,
      "ĠCONDENSED": 8468,
      "icit": 8469,
      "000072": 8470,
      "391": 8471,
      "460": 8472,
      "Additionally": 8473,
      "Ġcandidates": 8474,
      "447": 8475,
      "Ġwrong": 8476,
      "Ġ%": 8477,
      "excluding": 8478,
      "445": 8479,
      "013": 8480,
      "12595": 8481,
      "0000912595": 8482,
      "379": 8483,
      "reases": 8484,
      "ĠDominion": 8485,
      "Ġ60": 8486,
      "BC": 8487,
      "Contractual": 8488,
      "Ġlawsuit": 8489,
      "ĠInfrastructure": 8490,
      "ĠHigh": 8491,
      "392": 8492,
      "ĠSoftware": 8493,
      "Ġcharter": 8494,
      "4190": 8495,
      "0000354190": 8496,
      "Ġconformity": 8497,
      "bor": 8498,
      "annual": 8499,
      "Ġfinanc": 8500,
      "ĠCODM": 8501,
      "Ġsensitivity": 8502,
      "560": 8503,
      "Ġsmile": 8504,
      "Ġcaption": 8505,
      "Ġtold": 8506,
      "411": 8507,
      "0727": 8508,
      "Ġdefinitive": 8509,
      "SIGN": 8510,
      "Equal": 8511,
      "Ġshit": 8512,
      "444": 8513,
      "ibus": 8514,
      "mes": 8515,
      "0001090727": 8516,
      "uy": 8517,
      "076": 8518,
      "ĠDev": 8519,
      "TABLE": 8520,
      "Ġapproximate": 8521,
      "0000037996": 8522,
      "VA": 8523,
      "ĠAPS": 8524,
      "Ġheads": 8525,
      "onents": 8526,
      "ewhere": 8527,
      "Ġwrit": 8528,
      "ĠEnvironmental": 8529,
      "402": 8530,
      "Subdivisions": 8531,
      "Ġteams": 8532,
      "0000875045": 8533,
      "iced": 8534,
      "ĠCap": 8535,
      "ĠAcquisitions": 8536,
      "GasMember": 8537,
      "Ġalleging": 8538,
      "Ġpaying": 8539,
      "Ġcamer": 8540,
      "Ġpayables": 8541,
      "cel": 8542,
      "ows": 8543,
      "492": 8544,
      "vtr": 8545,
      "Mod": 8546,
      "Ġhall": 8547,
      "OWS": 8548,
      "XBRL": 8549,
      "sewhere": 8550,
      "Ġinquir": 8551,
      "Ġdeb": 8552,
      "ProductLineMember": 8553,
      "Ġdivided": 8554,
      "through": 8555,
      "Ġcommunication": 8556,
      "Ġportions": 8557,
      "Ġextinguish": 8558,
      "oliticalSubdivisions": 8559,
      "ĠOmn": 8560,
      "Ġdriving": 8561,
      "0000920": 8562,
      "Ġkiss": 8563,
      "Ġver": 8564,
      "dentification": 8565,
      "423": 8566,
      "City": 8567,
      "Ġpicks": 8568,
      "âĢĿ,": 8569,
      "394": 8570,
      "Ġheard": 8571,
      "885": 8572,
      "Ġspecialty": 8573,
      "iful": 8574,
      "409": 8575,
      "ĠMon": 8576,
      "Ġfalls": 8577,
      "Ġbit": 8578,
      "Ġtenant": 8579,
      "AndPoliticalSubdivisions": 8580,
      "417": 8581,
      "Ġexped": 8582,
      "Comb": 8583,
      "Ġallocations": 8584,
      "412": 8585,
      "Ġpath": 8586,
      "ĠMany": 8587,
      "Ġce": 8588,
      "419": 8589,
      "ugh": 8590,
      "Ġwarranties": 8591,
      "ownt": 8592,
      "ĠRay": 8593,
      "Realized": 8594,
      "Ġoutlook": 8595,
      "ups": 8596,
      "Ġinterpretation": 8597,
      "Ġlaunch": 8598,
      "Ġobserv": 8599,
      "Mississippi": 8600,
      "426": 8601,
      "Ġdemon": 8602,
      "It": 8603,
      "yalties": 8604,
      "pn": 8605,
      "Ġstream": 8606,
      "ĠThrough": 8607,
      "Ġelsewhere": 8608,
      "Ġprofessionals": 8609,
      "Ohio": 8610,
      "Data": 8611,
      "SouthernCalifornia": 8612,
      "ĠCome": 8613,
      "ches": 8614,
      "Ġrepair": 8615,
      "UNITED": 8616,
      "Large": 8617,
      "Ġspend": 8618,
      "Ġparticipant": 8619,
      "ffee": 8620,
      "485": 8621,
      "AndPoliticalSubdivisionsMember": 8622,
      "kraine": 8623,
      "Ġpresence": 8624,
      "ĠTe": 8625,
      "USStates": 8626,
      "ĠNor": 8627,
      "Georgia": 8628,
      "554": 8629,
      "itrust": 8630,
      "apore": 8631,
      "ĠSolar": 8632,
      "isms": 8633,
      "ĠIB": 8634,
      "ificial": 8635,
      "NorthAmericaMember": 8636,
      "ĠDollars": 8637,
      "434": 8638,
      "ĠEconomic": 8639,
      "ISSION": 8640,
      "ĠMoreover": 8641,
      "Accelerated": 8642,
      "rf": 8643,
      "ĠPayments": 8644,
      "ĠCons": 8645,
      "Ġelection": 8646,
      "Cap": 8647,
      "Ġfast": 8648,
      "CS": 8649,
      "ingapore": 8650,
      "bre": 8651,
      "Ġadded": 8652,
      "Eight": 8653,
      "Ġtherein": 8654,
      "4803": 8655,
      "0000064803": 8656,
      "Ġmerchandise": 8657,
      "ĠOwnership": 8658,
      "Ġsaw": 8659,
      "Ġindirectly": 8660,
      "Ġbrokerage": 8661,
      "OUN": 8662,
      "075": 8663,
      "Ġguys": 8664,
      "470": 8665,
      "Ġinjury": 8666,
      "414": 8667,
      "Ġrelatively": 8668,
      "Ġsevere": 8669,
      "VariableInterestEntityNot": 8670,
      "000007800": 8671,
      "0000078003": 8672,
      "Ġsharing": 8673,
      "Extended": 8674,
      "Address": 8675,
      "407": 8676,
      "son": 8677,
      "496": 8678,
      "Ġcollateralized": 8679,
      "5880": 8680,
      "0000765880": 8681,
      "Ġesc": 8682,
      "ĠPSE": 8683,
      "Ġlever": 8684,
      "Ġconsiderations": 8685,
      "Rock": 8686,
      "ĠSec": 8687,
      "Ġstudies": 8688,
      "Ġder": 8689,
      "Ġdefect": 8690,
      "Ġrunning": 8691,
      "Ġrail": 8692,
      "Ġspons": 8693,
      "ided": 8694,
      "431": 8695,
      "four": 8696,
      "ĠIncorporation": 8697,
      "CF": 8698,
      "Ġconverted": 8699,
      "ARA": 8700,
      "Ġinflationary": 8701,
      "Ġscrutin": 8702,
      "WARD": 8703,
      "ego": 8704,
      "Ġsitting": 8705,
      "GasAndElectricCompanyMember": 8706,
      "ĠCEC": 8707,
      "446": 8708,
      "Individual": 8709,
      "Ġdynam": 8710,
      "etimes": 8711,
      "Ġrob": 8712,
      "Ġmodification": 8713,
      "ĠBILL": 8714,
      "rief": 8715,
      "Ġdiscrete": 8716,
      "USStatesAndPoliticalSubdivisionsMember": 8717,
      "540": 8718,
      "ylvan": 8719,
      "taining": 8720,
      "Ġprelim": 8721,
      "attacks": 8722,
      "Ġcontam": 8723,
      "ĠGrant": 8724,
      "Ġopp": 8725,
      "ĠEmployer": 8726,
      "ference": 8727,
      "Aggreg": 8728,
      "Ġstructured": 8729,
      "479": 8730,
      "427": 8731,
      "resh": 8732,
      "Ġprospective": 8733,
      "ĠFed": 8734,
      "00013244": 8735,
      "Ġundersigned": 8736,
      "rum": 8737,
      "versource": 8738,
      "Ġ405": 8739,
      "Results": 8740,
      "EquityFundsMember": 8741,
      "Quarter": 8742,
      "VariableInterestEntityNotPrimaryBeneficiaryMember": 8743,
      "ĠSTRE": 8744,
      "525": 8745,
      "Ġreceipts": 8746,
      "ourage": 8747,
      "Exhibits": 8748,
      "575": 8749,
      "Ġcontractors": 8750,
      "486": 8751,
      "Distributions": 8752,
      "Ġresidual": 8753,
      "ĠEn": 8754,
      "Ġhandling": 8755,
      "Ġpreferences": 8756,
      "6312": 8757,
      "ĠDivision": 8758,
      "ĠHedging": 8759,
      "Ġescal": 8760,
      "0000086312": 8761,
      "428": 8762,
      "ĠMont": 8763,
      "cludes": 8764,
      "Ġreclassifications": 8765,
      "olidation": 8766,
      "Ġokay": 8767,
      "000178": 8768,
      "Ġprevail": 8769,
      "eme": 8770,
      "Ġerrors": 8771,
      "Ġthereof": 8772,
      "0086": 8773,
      "aneous": 8774,
      "Ġinternally": 8775,
      "urns": 8776,
      "488": 8777,
      "413": 8778,
      "Ġundiscounted": 8779,
      "nson": 8780,
      "ĠTre": 8781,
      "RevenueFrom": 8782,
      "cation": 8783,
      "ĠExhibits": 8784,
      "ExpensesMember": 8785,
      "0000060086": 8786,
      "iors": 8787,
      "pfe": 8788,
      "418": 8789,
      "ĠEquivalents": 8790,
      "After": 8791,
      "Ġeverything": 8792,
      "0000849": 8793,
      "ĠPurchased": 8794,
      "arrants": 8795,
      "Agency": 8796,
      "ĠFixed": 8797,
      "588": 8798,
      "Ġvoluntary": 8799,
      "AccumulatedDefinedBenefitPlansAdjustment": 8800,
      "stock": 8801,
      "416": 8802,
      "bitr": 8803,
      "ĠEar": 8804,
      "ruist": 8805,
      "uda": 8806,
      "448": 8807,
      "erMember": 8808,
      "employment": 8809,
      "ĠSepar": 8810,
      "Ġdiversity": 8811,
      "izona": 8812,
      "510": 8813,
      "0000004": 8814,
      "0000072903": 8815,
      "irus": 8816,
      "Qualified": 8817,
      "Ġcontrolling": 8818,
      "Acquired": 8819,
      "Ġobjective": 8820,
      "ĠOUT": 8821,
      "NING": 8822,
      "Ġoccupancy": 8823,
      "ylvania": 8824,
      "435": 8825,
      "5672": 8826,
      "461": 8827,
      "Ġbio": 8828,
      "Ġtick": 8829,
      "Nonoperating": 8830,
      "0001755672": 8831,
      "484": 8832,
      "ĠArkansas": 8833,
      "agnostic": 8834,
      "Broker": 8835,
      "424": 8836,
      "Ġarms": 8837,
      "included": 8838,
      "bles": 8839,
      "pet": 8840,
      "Ġdefinition": 8841,
      "Ġinadequate": 8842,
      "449": 8843,
      "0000906107": 8844,
      "ĠCarolina": 8845,
      "igaret": 8846,
      "ky": 8847,
      "RightsMember": 8848,
      "ajg": 8849,
      "ĠLiquidity": 8850,
      "Exercise": 8851,
      "438": 8852,
      "68275": 8853,
      "0001868275": 8854,
      "ĠNY": 8855,
      "SIGNAT": 8856,
      "mar": 8857,
      "ought": 8858,
      "Ġuncon": 8859,
      "Ending": 8860,
      "enns": 8861,
      "ccup": 8862,
      "Ġ99": 8863,
      "421": 8864,
      "Ġbel": 8865,
      "Ġaffiliated": 8866,
      "pite": 8867,
      "Ġrefunds": 8868,
      "5073": 8869,
      "ĠCOL": 8870,
      "ĠAtt": 8871,
      "0001095073": 8872,
      "Ġcomparison": 8873,
      "Ġseat": 8874,
      "433": 8875,
      "458": 8876,
      "Ġwildfire": 8877,
      "Ġserves": 8878,
      "Ġcovering": 8879,
      "Strategic": 8880,
      "Ġexhibit": 8881,
      "Overnight": 8882,
      "ishing": 8883,
      "East": 8884,
      "Ġeduc": 8885,
      "Ġson": 8886,
      "Ġpul": 8887,
      "481": 8888,
      "HomeEquity": 8889,
      "Medic": 8890,
      "Ġapplying": 8891,
      "Ġmiss": 8892,
      "criber": 8893,
      "ennsylvania": 8894,
      "Se": 8895,
      "809": 8896,
      "building": 8897,
      "pred": 8898,
      "reland": 8899,
      "isting": 8900,
      "Ġdemonstr": 8901,
      "iously": 8902,
      "515": 8903,
      "ĠSecond": 8904,
      "ĠID": 8905,
      "3103": 8906,
      "anta": 8907,
      "ĠSM": 8908,
      "Ġcrypto": 8909,
      "ĠAwards": 8910,
      "front": 8911,
      "axim": 8912,
      "ĠSuper": 8913,
      "0000831259": 8914,
      "ĠCompliance": 8915,
      "Ġinsurers": 8916,
      "ĠOrganizations": 8917,
      "Ġexceptions": 8918,
      "acqu": 8919,
      "Model": 8920,
      "epend": 8921,
      "Ġhazardous": 8922,
      "asers": 8923,
      "Ġexpanding": 8924,
      "Ġdisease": 8925,
      "Ġapplies": 8926,
      "Ġpayroll": 8927,
      "Scenario": 8928,
      "?!": 8929,
      "Ġseems": 8930,
      "Ġenhanc": 8931,
      "AndPowerCompanyMember": 8932,
      "ĠBill": 8933,
      "AI": 8934,
      "463": 8935,
      "Mat": 8936,
      "000161": 8937,
      "0001613103": 8938,
      "455": 8939,
      "oming": 8940,
      "orecast": 8941,
      "othet": 8942,
      "ĠUSA": 8943,
      "Af": 8944,
      "dro": 8945,
      "Ġcorner": 8946,
      "fitb": 8947,
      "MD": 8948,
      "Ġweakness": 8949,
      "Ġoverhead": 8950,
      "432": 8951,
      "ĠRegistration": 8952,
      "autiful": 8953,
      "580": 8954,
      "AUD": 8955,
      "ObligationsMember": 8956,
      "491": 8957,
      "eqr": 8958,
      "ĠGe": 8959,
      "retion": 8960,
      "order": 8961,
      "ĠFE": 8962,
      "ĠPaper": 8963,
      "core": 8964,
      "Ġstakeholders": 8965,
      "ĠOptions": 8966,
      "Ġadequately": 8967,
      "Ġmainly": 8968,
      "CLOS": 8969,
      "Ġattack": 8970,
      "ĠProject": 8971,
      "Ġdeterminable": 8972,
      "Ġtransp": 8973,
      "Ġphot": 8974,
      "Ġtargeted": 8975,
      "Ġsatisfaction": 8976,
      "ĠColl": 8977,
      "leans": 8978,
      "Ġjud": 8979,
      "Ġroles": 8980,
      "Floating": 8981,
      "0001069": 8982,
[...]
